{
  "version": "1.0",
  "truncation": null,
  "padding": null,
  "added_tokens": [
    {
      "id": 0,
      "content": "<unk>",
      "single_word": false,
      "lstrip": false,
      "rstrip": false,
      "normalized": false,
      "special": true
    },
    {
      "id": 1,
      "content": "<|begin_of_text|>",
      "single_word": false,
      "lstrip": false,
      "rstrip": false,
      "normalized": false,
      "special": true
    },
    {
      "id": 2,
      "content": "<|end_of_text|>",
      "single_word": false,
      "lstrip": false,
      "rstrip": false,
      "normalized": false,
      "special": true
    },
    {
      "id": 3,
      "content": "<|human|>",
      "single_word": false,
      "lstrip": false,
      "rstrip": false,
      "normalized": false,
      "special": true
    },
    {
      "id": 4,
      "content": "<|assistant|>",
      "single_word": false,
      "lstrip": false,
      "rstrip": false,
      "normalized": false,
      "special": true
    },
    {
      "id": 5,
      "content": "<|system|>",
      "single_word": false,
      "lstrip": false,
      "rstrip": false,
      "normalized": false,
      "special": true
    },
    {
      "id": 6,
      "content": "<|end_turn|>",
      "single_word": false,
      "lstrip": false,
      "rstrip": false,
      "normalized": false,
      "special": true
    }
  ],
  "normalizer": {
    "type": "Sequence",
    "normalizers": [
      {
        "type": "NFC"
      },
      {
        "type": "Replace",
        "pattern": {
          "String": " "
        },
        "content": " "
      }
    ]
  },
  "pre_tokenizer": {
    "type": "Sequence",
    "pretokenizers": [
      {
        "type": "Whitespace"
      },
      {
        "type": "Punctuation",
        "behavior": "Isolated"
      },
      {
        "type": "Digits",
        "individual_digits": false
      }
    ]
  },
  "post_processor": {
    "type": "TemplateProcessing",
    "single": [
      {
        "SpecialToken": {
          "id": "<|begin_of_text|>",
          "type_id": 0
        }
      },
      {
        "Sequence": {
          "id": "A",
          "type_id": 0
        }
      },
      {
        "SpecialToken": {
          "id": "<|end_of_text|>",
          "type_id": 0
        }
      }
    ],
    "pair": [
      {
        "SpecialToken": {
          "id": "<|begin_of_text|>",
          "type_id": 0
        }
      },
      {
        "Sequence": {
          "id": "A",
          "type_id": 0
        }
      },
      {
        "SpecialToken": {
          "id": "<|end_of_text|>",
          "type_id": 0
        }
      },
      {
        "Sequence": {
          "id": "B",
          "type_id": 1
        }
      },
      {
        "SpecialToken": {
          "id": "<|end_of_text|>",
          "type_id": 1
        }
      }
    ],
    "special_tokens": {
      "<|begin_of_text|>": {
        "id": "<|begin_of_text|>",
        "ids": [
          1
        ],
        "tokens": [
          "<|begin_of_text|>"
        ]
      },
      "<|end_of_text|>": {
        "id": "<|end_of_text|>",
        "ids": [
          2
        ],
        "tokens": [
          "<|end_of_text|>"
        ]
      }
    }
  },
  "decoder": {
    "type": "BPEDecoder",
    "suffix": "</w>"
  },
  "model": {
    "type": "BPE",
    "dropout": null,
    "unk_token": "<unk>",
    "continuing_subword_prefix": null,
    "end_of_word_suffix": null,
    "fuse_unk": false,
    "byte_fallback": false,
    "ignore_merges": false,
    "vocab": {
      "<unk>": 0,
      "<|begin_of_text|>": 1,
      "<|end_of_text|>": 2,
      "<|human|>": 3,
      "<|assistant|>": 4,
      "<|system|>": 5,
      "<|end_turn|>": 6,
      "\u0000": 7,
      "\u0001": 8,
      "\u0002": 9,
      "\u0003": 10,
      "\u0004": 11,
      "\u0005": 12,
      "\u0006": 13,
      "\u0007": 14,
      "\b": 15,
      "\u000e": 16,
      "\u000f": 17,
      "\u0010": 18,
      "\u0011": 19,
      "\u0012": 20,
      "\u0013": 21,
      "\u0014": 22,
      "\u0015": 23,
      "\u0016": 24,
      "\u0017": 25,
      "\u0018": 26,
      "\u0019": 27,
      "\u001a": 28,
      "\u001b": 29,
      "!": 30,
      "\"": 31,
      "#": 32,
      "$": 33,
      "%": 34,
      "&": 35,
      "'": 36,
      "(": 37,
      ")": 38,
      "*": 39,
      "+": 40,
      ",": 41,
      "-": 42,
      ".": 43,
      "/": 44,
      "0": 45,
      "1": 46,
      "2": 47,
      "3": 48,
      "4": 49,
      "5": 50,
      "6": 51,
      "7": 52,
      "8": 53,
      "9": 54,
      ":": 55,
      ";": 56,
      "<": 57,
      "=": 58,
      ">": 59,
      "?": 60,
      "@": 61,
      "A": 62,
      "B": 63,
      "C": 64,
      "D": 65,
      "E": 66,
      "F": 67,
      "G": 68,
      "H": 69,
      "I": 70,
      "J": 71,
      "K": 72,
      "L": 73,
      "M": 74,
      "N": 75,
      "O": 76,
      "P": 77,
      "Q": 78,
      "R": 79,
      "S": 80,
      "T": 81,
      "U": 82,
      "V": 83,
      "W": 84,
      "X": 85,
      "Y": 86,
      "Z": 87,
      "[": 88,
      "\\": 89,
      "]": 90,
      "^": 91,
      "_": 92,
      "`": 93,
      "a": 94,
      "b": 95,
      "c": 96,
      "d": 97,
      "e": 98,
      "f": 99,
      "g": 100,
      "h": 101,
      "i": 102,
      "j": 103,
      "k": 104,
      "l": 105,
      "m": 106,
      "n": 107,
      "o": 108,
      "p": 109,
      "q": 110,
      "r": 111,
      "s": 112,
      "t": 113,
      "u": 114,
      "v": 115,
      "w": 116,
      "x": 117,
      "y": 118,
      "z": 119,
      "{": 120,
      "|": 121,
      "}": 122,
      "~": 123,
      "": 124,
      "": 125,
      "": 126,
      "": 127,
      "": 128,
      "": 129,
      "": 130,
      "": 131,
      "": 132,
      "": 133,
      "": 134,
      "": 135,
      "": 136,
      "": 137,
      "": 138,
      "": 139,
      "": 140,
      "": 141,
      "": 142,
      "": 143,
      "": 144,
      "": 145,
      "": 146,
      "": 147,
      "": 148,
      "": 149,
      "": 150,
      "": 151,
      "": 152,
      "": 153,
      "": 154,
      "": 155,
      "¡": 156,
      "¢": 157,
      "£": 158,
      "¤": 159,
      "¥": 160,
      "¦": 161,
      "§": 162,
      "©": 163,
      "«": 164,
      "¬": 165,
      "­": 166,
      "®": 167,
      "°": 168,
      "±": 169,
      "¶": 170,
      "·": 171,
      "»": 172,
      "¿": 173,
      "À": 174,
      "Á": 175,
      "Â": 176,
      "Ã": 177,
      "Ä": 178,
      "Å": 179,
      "Æ": 180,
      "Ç": 181,
      "È": 182,
      "É": 183,
      "Ê": 184,
      "Ë": 185,
      "Ì": 186,
      "Í": 187,
      "Î": 188,
      "Ï": 189,
      "Ð": 190,
      "Ñ": 191,
      "Ò": 192,
      "Ó": 193,
      "Ô": 194,
      "Õ": 195,
      "Ö": 196,
      "×": 197,
      "Ø": 198,
      "Ù": 199,
      "Ú": 200,
      "Û": 201,
      "Ü": 202,
      "Ý": 203,
      "Þ": 204,
      "ß": 205,
      "à": 206,
      "á": 207,
      "â": 208,
      "ã": 209,
      "ä": 210,
      "å": 211,
      "æ": 212,
      "ç": 213,
      "è": 214,
      "é": 215,
      "ê": 216,
      "ë": 217,
      "ì": 218,
      "í": 219,
      "î": 220,
      "ï": 221,
      "ð": 222,
      "ñ": 223,
      "ò": 224,
      "ó": 225,
      "ô": 226,
      "õ": 227,
      "ö": 228,
      "÷": 229,
      "ø": 230,
      "ù": 231,
      "ú": 232,
      "û": 233,
      "ü": 234,
      "ý": 235,
      "þ": 236,
      "ÿ": 237,
      "Ā": 238,
      "ā": 239,
      "Ă": 240,
      "ă": 241,
      "Ą": 242,
      "ą": 243,
      "Ć": 244,
      "ć": 245,
      "Ĉ": 246,
      "ĉ": 247,
      "Ċ": 248,
      "ċ": 249,
      "Č": 250,
      "č": 251,
      "Ď": 252,
      "ď": 253,
      "Đ": 254,
      "đ": 255,
      "Ē": 256,
      "ē": 257,
      "ĕ": 258,
      "Ė": 259,
      "ė": 260,
      "Ę": 261,
      "ę": 262,
      "Ě": 263,
      "ě": 264,
      "Ĝ": 265,
      "ĝ": 266,
      "Ğ": 267,
      "ğ": 268,
      "Ġ": 269,
      "ġ": 270,
      "Ģ": 271,
      "ģ": 272,
      "Ĥ": 273,
      "ĥ": 274,
      "Ħ": 275,
      "ħ": 276,
      "Ĩ": 277,
      "ĩ": 278,
      "Ī": 279,
      "ī": 280,
      "Ĭ": 281,
      "ĭ": 282,
      "į": 283,
      "İ": 284,
      "ı": 285,
      "Ĵ": 286,
      "ĵ": 287,
      "ķ": 288,
      "Ĺ": 289,
      "ĺ": 290,
      "ļ": 291,
      "Ľ": 292,
      "ľ": 293,
      "Ł": 294,
      "ł": 295,
      "Ń": 296,
      "ń": 297,
      "ņ": 298,
      "ň": 299,
      "ŋ": 300,
      "Ō": 301,
      "ō": 302,
      "Ŏ": 303,
      "ŏ": 304,
      "Ő": 305,
      "ő": 306,
      "Œ": 307,
      "œ": 308,
      "ŕ": 309,
      "ŗ": 310,
      "Ř": 311,
      "ř": 312,
      "Ś": 313,
      "ś": 314,
      "Ŝ": 315,
      "ŝ": 316,
      "Ş": 317,
      "ş": 318,
      "Š": 319,
      "š": 320,
      "Ţ": 321,
      "ţ": 322,
      "Ť": 323,
      "ť": 324,
      "Ũ": 325,
      "ũ": 326,
      "Ū": 327,
      "ū": 328,
      "Ŭ": 329,
      "ŭ": 330,
      "ů": 331,
      "Ű": 332,
      "ű": 333,
      "ų": 334,
      "Ÿ": 335,
      "Ź": 336,
      "ź": 337,
      "Ż": 338,
      "ż": 339,
      "Ž": 340,
      "ž": 341,
      "ƅ": 342,
      "ƌ": 343,
      "Ǝ": 344,
      "Ə": 345,
      "ƒ": 346,
      "Ɣ": 347,
      "ƛ": 348,
      "ƞ": 349,
      "Ơ": 350,
      "ơ": 351,
      "Ƥ": 352,
      "Ƨ": 353,
      "Ƭ": 354,
      "Ư": 355,
      "ư": 356,
      "ǀ": 357,
      "ǁ": 358,
      "ǂ": 359,
      "ǃ": 360,
      "ǎ": 361,
      "Ǐ": 362,
      "ǐ": 363,
      "ǒ": 364,
      "ǔ": 365,
      "ǝ": 366,
      "ǣ": 367,
      "Ǫ": 368,
      "ǫ": 369,
      "ǹ": 370,
      "ȁ": 371,
      "Ȃ": 372,
      "Ȅ": 373,
      "ȅ": 374,
      "ȇ": 375,
      "ȉ": 376,
      "ȏ": 377,
      "Ș": 378,
      "ș": 379,
      "Ț": 380,
      "ț": 381,
      "ȳ": 382,
      "ɂ": 383,
      "Ƀ": 384,
      "ɍ": 385,
      "ɐ": 386,
      "ɑ": 387,
      "ɒ": 388,
      "ɓ": 389,
      "ɔ": 390,
      "ɕ": 391,
      "ɗ": 392,
      "ɘ": 393,
      "ə": 394,
      "ɛ": 395,
      "ɜ": 396,
      "ɟ": 397,
      "ɡ": 398,
      "ɣ": 399,
      "ɤ": 400,
      "ɦ": 401,
      "ɨ": 402,
      "ɪ": 403,
      "ɫ": 404,
      "ɬ": 405,
      "ɯ": 406,
      "ɰ": 407,
      "ɲ": 408,
      "ɵ": 409,
      "ɹ": 410,
      "ɾ": 411,
      "ʀ": 412,
      "ʁ": 413,
      "ʃ": 414,
      "ʇ": 415,
      "ʉ": 416,
      "ʊ": 417,
      "ʋ": 418,
      "ʌ": 419,
      "ʎ": 420,
      "ʏ": 421,
      "ʑ": 422,
      "ʒ": 423,
      "ʔ": 424,
      "ʕ": 425,
      "ʝ": 426,
      "ʡ": 427,
      "ʢ": 428,
      "ʣ": 429,
      "ʧ": 430,
      "ʹ": 431,
      "ʻ": 432,
      "ʼ": 433,
      "ʽ": 434,
      "ʾ": 435,
      "ʿ": 436,
      "ˀ": 437,
      "˂": 438,
      "˃": 439,
      "ˆ": 440,
      "ˇ": 441,
      "ˈ": 442,
      "ˊ": 443,
      "ˌ": 444,
      "ː": 445,
      "ˑ": 446,
      "˗": 447,
      "˧": 448,
      "˨": 449,
      "ˮ": 450,
      "̀": 451,
      "́": 452,
      "̂": 453,
      "̃": 454,
      "̄": 455,
      "̅": 456,
      "̆": 457,
      "̇": 458,
      "̈": 459,
      "̊": 460,
      "̋": 461,
      "̌": 462,
      "̎": 463,
      "̏": 464,
      "̑": 465,
      "̒": 466,
      "̓": 467,
      "̔": 468,
      "̕": 469,
      "̞": 470,
      "̣": 471,
      "̤": 472,
      "̥": 473,
      "̧": 474,
      "̨": 475,
      "̩": 476,
      "̪": 477,
      "̯": 478,
      "̱": 479,
      "̲": 480,
      "̳": 481,
      "̵": 482,
      "̶": 483,
      "̽": 484,
      "͂": 485,
      "͕": 486,
      "͞": 487,
      "͡": 488,
      "Ͳ": 489,
      "ͻ": 490,
      "Ά": 491,
      "Έ": 492,
      "Ή": 493,
      "Ί": 494,
      "Ό": 495,
      "Ύ": 496,
      "Ώ": 497,
      "ΐ": 498,
      "Α": 499,
      "Β": 500,
      "Γ": 501,
      "Δ": 502,
      "Ε": 503,
      "Ζ": 504,
      "Η": 505,
      "Θ": 506,
      "Ι": 507,
      "Κ": 508,
      "Λ": 509,
      "Μ": 510,
      "Ν": 511,
      "Ξ": 512,
      "Ο": 513,
      "Π": 514,
      "Ρ": 515,
      "Σ": 516,
      "Τ": 517,
      "Υ": 518,
      "Φ": 519,
      "Χ": 520,
      "Ψ": 521,
      "Ω": 522,
      "Ϊ": 523,
      "ά": 524,
      "έ": 525,
      "ή": 526,
      "ί": 527,
      "ΰ": 528,
      "α": 529,
      "β": 530,
      "γ": 531,
      "δ": 532,
      "ε": 533,
      "ζ": 534,
      "η": 535,
      "θ": 536,
      "ι": 537,
      "κ": 538,
      "λ": 539,
      "μ": 540,
      "ν": 541,
      "ξ": 542,
      "ο": 543,
      "π": 544,
      "ρ": 545,
      "ς": 546,
      "σ": 547,
      "τ": 548,
      "υ": 549,
      "φ": 550,
      "χ": 551,
      "ψ": 552,
      "ω": 553,
      "ϊ": 554,
      "ϋ": 555,
      "ό": 556,
      "ύ": 557,
      "ώ": 558,
      "ϛ": 559,
      "ϟ": 560,
      "Ё": 561,
      "Ђ": 562,
      "Ѓ": 563,
      "Є": 564,
      "Ѕ": 565,
      "І": 566,
      "Ї": 567,
      "Љ": 568,
      "Њ": 569,
      "Ћ": 570,
      "Ў": 571,
      "А": 572,
      "Б": 573,
      "В": 574,
      "Г": 575,
      "Д": 576,
      "Е": 577,
      "Ж": 578,
      "З": 579,
      "И": 580,
      "Й": 581,
      "К": 582,
      "Л": 583,
      "М": 584,
      "Н": 585,
      "О": 586,
      "П": 587,
      "Р": 588,
      "С": 589,
      "Т": 590,
      "У": 591,
      "Ф": 592,
      "Х": 593,
      "Ц": 594,
      "Ч": 595,
      "Ш": 596,
      "Щ": 597,
      "Ъ": 598,
      "Ы": 599,
      "Ь": 600,
      "Э": 601,
      "Ю": 602,
      "Я": 603,
      "а": 604,
      "б": 605,
      "в": 606,
      "г": 607,
      "д": 608,
      "е": 609,
      "ж": 610,
      "з": 611,
      "и": 612,
      "й": 613,
      "к": 614,
      "л": 615,
      "м": 616,
      "н": 617,
      "о": 618,
      "п": 619,
      "р": 620,
      "с": 621,
      "т": 622,
      "у": 623,
      "ф": 624,
      "х": 625,
      "ц": 626,
      "ч": 627,
      "ш": 628,
      "щ": 629,
      "ъ": 630,
      "ы": 631,
      "ь": 632,
      "э": 633,
      "ю": 634,
      "я": 635,
      "ѐ": 636,
      "ё": 637,
      "ђ": 638,
      "є": 639,
      "ѕ": 640,
      "і": 641,
      "ї": 642,
      "ј": 643,
      "љ": 644,
      "њ": 645,
      "ћ": 646,
      "ќ": 647,
      "ў": 648,
      "џ": 649,
      "Ѣ": 650,
      "ѣ": 651,
      "Ѥ": 652,
      "ѫ": 653,
      "ѵ": 654,
      "҂": 655,
      "ҏ": 656,
      "Ґ": 657,
      "ґ": 658,
      "ғ": 659,
      "Қ": 660,
      "қ": 661,
      "ҡ": 662,
      "ң": 663,
      "ҧ": 664,
      "Ү": 665,
      "ү": 666,
      "ҷ": 667,
      "ҹ": 668,
      "һ": 669,
      "ӑ": 670,
      "ӗ": 671,
      "ә": 672,
      "ӣ": 673,
      "Ӧ": 674,
      "ӧ": 675,
      "Ө": 676,
      "ө": 677,
      "ӫ": 678,
      "ӯ": 679,
      "ӳ": 680,
      "ԁ": 681,
      "ԝ": 682,
      "Ա": 683,
      "Բ": 684,
      "Գ": 685,
      "Դ": 686,
      "Ե": 687,
      "Թ": 688,
      "Ի": 689,
      "Լ": 690,
      "Կ": 691,
      "Հ": 692,
      "Ձ": 693,
      "Մ": 694,
      "Ն": 695,
      "Ո": 696,
      "Չ": 697,
      "Պ": 698,
      "Ռ": 699,
      "Վ": 700,
      "Տ": 701,
      "Փ": 702,
      "՚": 703,
      "՛": 704,
      "՝": 705,
      "՞": 706,
      "ա": 707,
      "բ": 708,
      "գ": 709,
      "դ": 710,
      "ե": 711,
      "զ": 712,
      "է": 713,
      "ը": 714,
      "թ": 715,
      "ժ": 716,
      "ի": 717,
      "լ": 718,
      "խ": 719,
      "ծ": 720,
      "կ": 721,
      "հ": 722,
      "ձ": 723,
      "ղ": 724,
      "ճ": 725,
      "մ": 726,
      "յ": 727,
      "ն": 728,
      "շ": 729,
      "ո": 730,
      "չ": 731,
      "պ": 732,
      "ջ": 733,
      "ռ": 734,
      "ս": 735,
      "վ": 736,
      "տ": 737,
      "ր": 738,
      "ց": 739,
      "ւ": 740,
      "փ": 741,
      "ք": 742,
      "օ": 743,
      "ֆ": 744,
      "֑": 745,
      "֔": 746,
      "֖": 747,
      "֘": 748,
      "֙": 749,
      "֛": 750,
      "֜": 751,
      "֤": 752,
      "֥": 753,
      "֧": 754,
      "֨": 755,
      "֯": 756,
      "ְ": 757,
      "ֲ": 758,
      "ִ": 759,
      "ֵ": 760,
      "ֶ": 761,
      "ַ": 762,
      "ָ": 763,
      "ֹ": 764,
      "ֻ": 765,
      "ּ": 766,
      "ֽ": 767,
      "־": 768,
      "ׁ": 769,
      "ׂ": 770,
      "׃": 771,
      "א": 772,
      "ב": 773,
      "ג": 774,
      "ד": 775,
      "ה": 776,
      "ו": 777,
      "ז": 778,
      "ח": 779,
      "ט": 780,
      "י": 781,
      "ך": 782,
      "כ": 783,
      "ל": 784,
      "ם": 785,
      "מ": 786,
      "ן": 787,
      "נ": 788,
      "ס": 789,
      "ע": 790,
      "ף": 791,
      "פ": 792,
      "ץ": 793,
      "צ": 794,
      "ק": 795,
      "ר": 796,
      "ש": 797,
      "ת": 798,
      "׳": 799,
      "،": 800,
      "ؐ": 801,
      "ؕ": 802,
      "؛": 803,
      "؟": 804,
      "ء": 805,
      "ؤ": 806,
      "ئ": 807,
      "ا": 808,
      "ب": 809,
      "ة": 810,
      "ت": 811,
      "ث": 812,
      "ج": 813,
      "ح": 814,
      "خ": 815,
      "د": 816,
      "ذ": 817,
      "ر": 818,
      "ز": 819,
      "س": 820,
      "ش": 821,
      "ص": 822,
      "ض": 823,
      "ط": 824,
      "ظ": 825,
      "ع": 826,
      "غ": 827,
      "ف": 828,
      "ق": 829,
      "ك": 830,
      "ل": 831,
      "م": 832,
      "ن": 833,
      "ه": 834,
      "و": 835,
      "ى": 836,
      "ي": 837,
      "ٓ": 838,
      "ٕ": 839,
      "ٖ": 840,
      "ٗ": 841,
      "٠": 842,
      "١": 843,
      "٢": 844,
      "٣": 845,
      "٤": 846,
      "٥": 847,
      "٦": 848,
      "٧": 849,
      "٨": 850,
      "٩": 851,
      "٪": 852,
      "٫": 853,
      "٬": 854,
      "ٴ": 855,
      "ٹ": 856,
      "ٻ": 857,
      "ټ": 858,
      "ٽ": 859,
      "پ": 860,
      "ٿ": 861,
      "ڀ": 862,
      "ځ": 863,
      "څ": 864,
      "چ": 865,
      "ڈ": 866,
      "ډ": 867,
      "ڊ": 868,
      "ڌ": 869,
      "ڍ": 870,
      "ڎ": 871,
      "ڏ": 872,
      "ڑ": 873,
      "ړ": 874,
      "ڕ": 875,
      "ژ": 876,
      "ښ": 877,
      "ڤ": 878,
      "ڦ": 879,
      "ک": 880,
      "ڪ": 881,
      "ګ": 882,
      "گ": 883,
      "ڰ": 884,
      "ڵ": 885,
      "ں": 886,
      "ڻ": 887,
      "ھ": 888,
      "ڿ": 889,
      "ہ": 890,
      "ۃ": 891,
      "ۆ": 892,
      "ۇ": 893,
      "ۈ": 894,
      "ۊ": 895,
      "ی": 896,
      "ۍ": 897,
      "ێ": 898,
      "ې": 899,
      "ے": 900,
      "ۓ": 901,
      "۔": 902,
      "ە": 903,
      "۰": 904,
      "۱": 905,
      "۲": 906,
      "۳": 907,
      "۴": 908,
      "۵": 909,
      "۶": 910,
      "۷": 911,
      "۸": 912,
      "۹": 913,
      "܂": 914,
      "ܐ": 915,
      "ܓ": 916,
      "ܕ": 917,
      "ܘ": 918,
      "ܝ": 919,
      "ܠ": 920,
      "ܡ": 921,
      "ܩ": 922,
      "ܪ": 923,
      "ܫ": 924,
      "ܬ": 925,
      "ހ": 926,
      "ރ": 927,
      "ބ": 928,
      "އ": 929,
      "ވ": 930,
      "މ": 931,
      "ދ": 932,
      "ގ": 933,
      "ސ": 934,
      "ޔ": 935,
      "ޖ": 936,
      "ަ": 937,
      "ާ": 938,
      "ި": 939,
      "ު": 940,
      "ޫ": 941,
      "ެ": 942,
      "ޭ": 943,
      "ް": 944,
      "߂": 945,
      "ߋ": 946,
      "ँ": 947,
      "ं": 948,
      "ः": 949,
      "अ": 950,
      "आ": 951,
      "इ": 952,
      "ई": 953,
      "उ": 954,
      "ऊ": 955,
      "ऋ": 956,
      "ए": 957,
      "ऐ": 958,
      "ऑ": 959,
      "ओ": 960,
      "औ": 961,
      "क": 962,
      "ख": 963,
      "ग": 964,
      "घ": 965,
      "ङ": 966,
      "च": 967,
      "छ": 968,
      "ज": 969,
      "झ": 970,
      "ञ": 971,
      "ट": 972,
      "ठ": 973,
      "ड": 974,
      "ढ": 975,
      "ण": 976,
      "त": 977,
      "थ": 978,
      "द": 979,
      "ध": 980,
      "न": 981,
      "प": 982,
      "फ": 983,
      "ब": 984,
      "भ": 985,
      "म": 986,
      "य": 987,
      "र": 988,
      "ल": 989,
      "ळ": 990,
      "व": 991,
      "श": 992,
      "ष": 993,
      "स": 994,
      "ह": 995,
      "़": 996,
      "ा": 997,
      "ि": 998,
      "ी": 999,
      "ु": 1000,
      "ू": 1001,
      "ृ": 1002,
      "े": 1003,
      "ै": 1004,
      "ॉ": 1005,
      "ो": 1006,
      "ौ": 1007,
      "्": 1008,
      "ॐ": 1009,
      "।": 1010,
      "॥": 1011,
      "१": 1012,
      "२": 1013,
      "३": 1014,
      "४": 1015,
      "५": 1016,
      "६": 1017,
      "७": 1018,
      "८": 1019,
      "९": 1020,
      "ং": 1021,
      "অ": 1022,
      "আ": 1023,
      "ই": 1024,
      "উ": 1025,
      "এ": 1026,
      "ও": 1027,
      "ক": 1028,
      "খ": 1029,
      "গ": 1030,
      "ঘ": 1031,
      "ঙ": 1032,
      "চ": 1033,
      "ছ": 1034,
      "জ": 1035,
      "ট": 1036,
      "ড": 1037,
      "ঢ": 1038,
      "ণ": 1039,
      "ত": 1040,
      "থ": 1041,
      "দ": 1042,
      "ধ": 1043,
      "ন": 1044,
      "প": 1045,
      "ফ": 1046,
      "ব": 1047,
      "ভ": 1048,
      "ম": 1049,
      "য": 1050,
      "র": 1051,
      "ল": 1052,
      "শ": 1053,
      "ষ": 1054,
      "স": 1055,
      "হ": 1056,
      "়": 1057,
      "া": 1058,
      "ি": 1059,
      "ী": 1060,
      "ু": 1061,
      "ে": 1062,
      "ো": 1063,
      "্": 1064,
      "ৰ": 1065,
      "৳": 1066,
      "ਅ": 1067,
      "ਆ": 1068,
      "ਈ": 1069,
      "ਗ": 1070,
      "ਜ": 1071,
      "ਣ": 1072,
      "ਤ": 1073,
      "ਥ": 1074,
      "ਨ": 1075,
      "ਪ": 1076,
      "ਬ": 1077,
      "ਭ": 1078,
      "ਰ": 1079,
      "ਲ": 1080,
      "ਵ": 1081,
      "ਸ": 1082,
      "ਾ": 1083,
      "ਿ": 1084,
      "ੀ": 1085,
      "ੁ": 1086,
      "ੰ": 1087,
      "ક": 1088,
      "ખ": 1089,
      "ગ": 1090,
      "જ": 1091,
      "ડ": 1092,
      "ત": 1093,
      "થ": 1094,
      "ન": 1095,
      "પ": 1096,
      "ફ": 1097,
      "બ": 1098,
      "ભ": 1099,
      "મ": 1100,
      "ર": 1101,
      "લ": 1102,
      "વ": 1103,
      "સ": 1104,
      "ા": 1105,
      "િ": 1106,
      "ી": 1107,
      "ુ": 1108,
      "ે": 1109,
      "્": 1110,
      "ૐ": 1111,
      "ଆ": 1112,
      "ଓ": 1113,
      "ଗ": 1114,
      "ଡ": 1115,
      "ତ": 1116,
      "ଥ": 1117,
      "ବ": 1118,
      "ଭ": 1119,
      "ର": 1120,
      "ସ": 1121,
      "଼": 1122,
      "ା": 1123,
      "ି": 1124,
      "୍": 1125,
      "அ": 1126,
      "ஆ": 1127,
      "இ": 1128,
      "உ": 1129,
      "ஊ": 1130,
      "எ": 1131,
      "ஏ": 1132,
      "க": 1133,
      "ங": 1134,
      "ச": 1135,
      "ஜ": 1136,
      "ஞ": 1137,
      "ட": 1138,
      "ண": 1139,
      "த": 1140,
      "ந": 1141,
      "ன": 1142,
      "ப": 1143,
      "ம": 1144,
      "ய": 1145,
      "ர": 1146,
      "ற": 1147,
      "ல": 1148,
      "ள": 1149,
      "ழ": 1150,
      "வ": 1151,
      "ஷ": 1152,
      "ஸ": 1153,
      "ஹ": 1154,
      "ா": 1155,
      "ி": 1156,
      "ீ": 1157,
      "ு": 1158,
      "ூ": 1159,
      "ெ": 1160,
      "ே": 1161,
      "ை": 1162,
      "ொ": 1163,
      "ோ": 1164,
      "்": 1165,
      "ం": 1166,
      "అ": 1167,
      "ఆ": 1168,
      "ఇ": 1169,
      "ఉ": 1170,
      "ఎ": 1171,
      "ఒ": 1172,
      "ఓ": 1173,
      "ఔ": 1174,
      "క": 1175,
      "ఖ": 1176,
      "గ": 1177,
      "ఘ": 1178,
      "చ": 1179,
      "జ": 1180,
      "ట": 1181,
      "డ": 1182,
      "ణ": 1183,
      "త": 1184,
      "థ": 1185,
      "ద": 1186,
      "ధ": 1187,
      "న": 1188,
      "ప": 1189,
      "ఫ": 1190,
      "బ": 1191,
      "భ": 1192,
      "మ": 1193,
      "య": 1194,
      "ర": 1195,
      "ల": 1196,
      "ళ": 1197,
      "వ": 1198,
      "శ": 1199,
      "ష": 1200,
      "స": 1201,
      "హ": 1202,
      "ా": 1203,
      "ి": 1204,
      "ీ": 1205,
      "ు": 1206,
      "ూ": 1207,
      "ె": 1208,
      "ే": 1209,
      "ై": 1210,
      "ొ": 1211,
      "ో": 1212,
      "ౌ": 1213,
      "్": 1214,
      "౧": 1215,
      "ಂ": 1216,
      "ಅ": 1217,
      "ಕ": 1218,
      "ಖ": 1219,
      "ಗ": 1220,
      "ಚ": 1221,
      "ಜ": 1222,
      "ಟ": 1223,
      "ಡ": 1224,
      "ಣ": 1225,
      "ತ": 1226,
      "ದ": 1227,
      "ಧ": 1228,
      "ನ": 1229,
      "ಪ": 1230,
      "ಬ": 1231,
      "ಭ": 1232,
      "ಮ": 1233,
      "ಯ": 1234,
      "ರ": 1235,
      "ಲ": 1236,
      "ಳ": 1237,
      "ವ": 1238,
      "ಶ": 1239,
      "ಷ": 1240,
      "ಸ": 1241,
      "ಹ": 1242,
      "ಾ": 1243,
      "ಿ": 1244,
      "ು": 1245,
      "ೆ": 1246,
      "ೇ": 1247,
      "ೈ": 1248,
      "್": 1249,
      "ം": 1250,
      "അ": 1251,
      "ക": 1252,
      "ഗ": 1253,
      "ങ": 1254,
      "ച": 1255,
      "ട": 1256,
      "ഡ": 1257,
      "ത": 1258,
      "ദ": 1259,
      "ന": 1260,
      "പ": 1261,
      "ബ": 1262,
      "ഭ": 1263,
      "മ": 1264,
      "യ": 1265,
      "ര": 1266,
      "റ": 1267,
      "ല": 1268,
      "ള": 1269,
      "വ": 1270,
      "സ": 1271,
      "ാ": 1272,
      "ി": 1273,
      "െ": 1274,
      "േ": 1275,
      "ോ": 1276,
      "്": 1277,
      "ർ": 1278,
      "ං": 1279,
      "ක": 1280,
      "ග": 1281,
      "ඟ": 1282,
      "ට": 1283,
      "ඩ": 1284,
      "ණ": 1285,
      "ත": 1286,
      "ද": 1287,
      "න": 1288,
      "ප": 1289,
      "බ": 1290,
      "ම": 1291,
      "ය": 1292,
      "ර": 1293,
      "ල": 1294,
      "ව": 1295,
      "ස": 1296,
      "හ": 1297,
      "්": 1298,
      "ා": 1299,
      "ැ": 1300,
      "ි": 1301,
      "ී": 1302,
      "ු": 1303,
      "ේ": 1304,
      "ก": 1305,
      "ข": 1306,
      "ค": 1307,
      "ฆ": 1308,
      "ง": 1309,
      "จ": 1310,
      "ฉ": 1311,
      "ช": 1312,
      "ซ": 1313,
      "ฌ": 1314,
      "ญ": 1315,
      "ฎ": 1316,
      "ฏ": 1317,
      "ฐ": 1318,
      "ณ": 1319,
      "ด": 1320,
      "ต": 1321,
      "ถ": 1322,
      "ท": 1323,
      "ธ": 1324,
      "น": 1325,
      "บ": 1326,
      "ป": 1327,
      "ผ": 1328,
      "ฝ": 1329,
      "พ": 1330,
      "ฟ": 1331,
      "ภ": 1332,
      "ม": 1333,
      "ย": 1334,
      "ร": 1335,
      "ฤ": 1336,
      "ล": 1337,
      "ว": 1338,
      "ศ": 1339,
      "ษ": 1340,
      "ส": 1341,
      "ห": 1342,
      "อ": 1343,
      "ฮ": 1344,
      "ฯ": 1345,
      "ะ": 1346,
      "ั": 1347,
      "า": 1348,
      "ิ": 1349,
      "ี": 1350,
      "ึ": 1351,
      "ื": 1352,
      "ุ": 1353,
      "ู": 1354,
      "ฺ": 1355,
      "฿": 1356,
      "เ": 1357,
      "แ": 1358,
      "โ": 1359,
      "ใ": 1360,
      "ไ": 1361,
      "ๆ": 1362,
      "็": 1363,
      "่": 1364,
      "้": 1365,
      "๊": 1366,
      "์": 1367,
      "ํ": 1368,
      "ກ": 1369,
      "ຊ": 1370,
      "ດ": 1371,
      "ພ": 1372,
      "ລ": 1373,
      "ວ": 1374,
      "ສ": 1375,
      "ຫ": 1376,
      "າ": 1377,
      "ົ": 1378,
      "ເ": 1379,
      "ໃ": 1380,
      "່": 1381,
      "້": 1382,
      "་": 1383,
      "།": 1384,
      "༺": 1385,
      "༻": 1386,
      "ཁ": 1387,
      "ག": 1388,
      "ང": 1389,
      "ཇ": 1390,
      "ད": 1391,
      "ན": 1392,
      "པ": 1393,
      "བ": 1394,
      "མ": 1395,
      "ཡ": 1396,
      "ར": 1397,
      "ལ": 1398,
      "ས": 1399,
      "ི": 1400,
      "ུ": 1401,
      "ེ": 1402,
      "ོ": 1403,
      "ྔ": 1404,
      "ྗ": 1405,
      "ྦ": 1406,
      "ླ": 1407,
      "က": 1408,
      "ခ": 1409,
      "င": 1410,
      "စ": 1411,
      "ဆ": 1412,
      "ည": 1413,
      "တ": 1414,
      "န": 1415,
      "ပ": 1416,
      "ဘ": 1417,
      "မ": 1418,
      "ယ": 1419,
      "ရ": 1420,
      "လ": 1421,
      "ဝ": 1422,
      "သ": 1423,
      "အ": 1424,
      "ါ": 1425,
      "ာ": 1426,
      "ိ": 1427,
      "ီ": 1428,
      "ု": 1429,
      "ူ": 1430,
      "ေ": 1431,
      "ံ": 1432,
      "း": 1433,
      "္": 1434,
      "်": 1435,
      "ျ": 1436,
      "ြ": 1437,
      "ွ": 1438,
      "ှ": 1439,
      "၊": 1440,
      "ႏ": 1441,
      "ა": 1442,
      "ბ": 1443,
      "გ": 1444,
      "დ": 1445,
      "ე": 1446,
      "ვ": 1447,
      "ზ": 1448,
      "თ": 1449,
      "ი": 1450,
      "კ": 1451,
      "ლ": 1452,
      "მ": 1453,
      "ნ": 1454,
      "ო": 1455,
      "პ": 1456,
      "რ": 1457,
      "ს": 1458,
      "ტ": 1459,
      "უ": 1460,
      "ფ": 1461,
      "ქ": 1462,
      "ღ": 1463,
      "ყ": 1464,
      "შ": 1465,
      "ჩ": 1466,
      "ც": 1467,
      "ძ": 1468,
      "წ": 1469,
      "ჭ": 1470,
      "ხ": 1471,
      "ჯ": 1472,
      "ჰ": 1473,
      "ჲ": 1474,
      "ᄀ": 1475,
      "ᄁ": 1476,
      "ᄂ": 1477,
      "ᄃ": 1478,
      "ᄄ": 1479,
      "ᄅ": 1480,
      "ᄆ": 1481,
      "ᄇ": 1482,
      "ᄈ": 1483,
      "ᄉ": 1484,
      "ᄊ": 1485,
      "ᄋ": 1486,
      "ᄌ": 1487,
      "ᄎ": 1488,
      "ᄏ": 1489,
      "ᄐ": 1490,
      "ᄑ": 1491,
      "ᄒ": 1492,
      "ᅢ": 1493,
      "ᅣ": 1494,
      "ᅤ": 1495,
      "ᅥ": 1496,
      "ᅦ": 1497,
      "ᅧ": 1498,
      "ᅨ": 1499,
      "ᅩ": 1500,
      "ᅪ": 1501,
      "ᅫ": 1502,
      "ᅬ": 1503,
      "ᅭ": 1504,
      "ᅮ": 1505,
      "ᅯ": 1506,
      "ᅲ": 1507,
      "ᅳ": 1508,
      "ᅴ": 1509,
      "ᅵ": 1510,
      "ᆞ": 1511,
      "ᆬ": 1512,
      "ሃ": 1513,
      "ለ": 1514,
      "ሉ": 1515,
      "ላ": 1516,
      "ሌ": 1517,
      "ል": 1518,
      "ሐ": 1519,
      "መ": 1520,
      "ሙ": 1521,
      "ማ": 1522,
      "ም": 1523,
      "ር": 1524,
      "ሰ": 1525,
      "ስ": 1526,
      "ሸ": 1527,
      "ሺ": 1528,
      "ቅ": 1529,
      "ቆ": 1530,
      "በ": 1531,
      "ብ": 1532,
      "ቬ": 1533,
      "ቱ": 1534,
      "ቲ": 1535,
      "ት": 1536,
      "ኃ": 1537,
      "ነ": 1538,
      "ና": 1539,
      "ኔ": 1540,
      "ን": 1541,
      "ኖ": 1542,
      "ኛ": 1543,
      "አ": 1544,
      "ኢ": 1545,
      "እ": 1546,
      "ከ": 1547,
      "ካ": 1548,
      "ወ": 1549,
      "ዘ": 1550,
      "ዝ": 1551,
      "የ": 1552,
      "ያ": 1553,
      "ይ": 1554,
      "ዮ": 1555,
      "ደ": 1556,
      "ዱ": 1557,
      "ዳ": 1558,
      "ግ": 1559,
      "ጠ": 1560,
      "ጥ": 1561,
      "ጵ": 1562,
      "ጻ": 1563,
      "ጽ": 1564,
      "ፊ": 1565,
      "ፍ": 1566,
      "Ꭶ": 1567,
      "Ꭹ": 1568,
      "Ꭺ": 1569,
      "Ꮃ": 1570,
      "Ꮅ": 1571,
      "Ꮎ": 1572,
      "Ꮧ": 1573,
      "Ꮪ": 1574,
      "Ꮳ": 1575,
      "Ꮷ": 1576,
      "Ꮺ": 1577,
      "ᐁ": 1578,
      "ᐃ": 1579,
      "ᐄ": 1580,
      "ᐅ": 1581,
      "ᐈ": 1582,
      "ᐊ": 1583,
      "ᐋ": 1584,
      "ᐍ": 1585,
      "ᐏ": 1586,
      "ᐢ": 1587,
      "ᐣ": 1588,
      "ᐤ": 1589,
      "ᐦ": 1590,
      "ᐧ": 1591,
      "ᐱ": 1592,
      "ᐲ": 1593,
      "ᐹ": 1594,
      "ᑎ": 1595,
      "ᑐ": 1596,
      "ᑖ": 1597,
      "ᑦ": 1598,
      "ᑫ": 1599,
      "ᑭ": 1600,
      "ᑯ": 1601,
      "ᑲ": 1602,
      "ᑳ": 1603,
      "ᒃ": 1604,
      "ᒋ": 1605,
      "ᒥ": 1606,
      "ᒧ": 1607,
      "ᒫ": 1608,
      "ᓀ": 1609,
      "ᓂ": 1610,
      "ᓄ": 1611,
      "ᓈ": 1612,
      "ᓐ": 1613,
      "ᓯ": 1614,
      "ᓰ": 1615,
      "ᓱ": 1616,
      "ᓵ": 1617,
      "ᔅ": 1618,
      "ᔭ": 1619,
      "ᕀ": 1620,
      "ក": 1621,
      "ខ": 1622,
      "គ": 1623,
      "ង": 1624,
      "ច": 1625,
      "ណ": 1626,
      "ត": 1627,
      "ថ": 1628,
      "ទ": 1629,
      "ធ": 1630,
      "ន": 1631,
      "ប": 1632,
      "ភ": 1633,
      "ម": 1634,
      "យ": 1635,
      "រ": 1636,
      "ល": 1637,
      "វ": 1638,
      "ស": 1639,
      "អ": 1640,
      "ា": 1641,
      "ិ": 1642,
      "ឹ": 1643,
      "ុ": 1644,
      "ើ": 1645,
      "េ": 1646,
      "ែ": 1647,
      "ោ": 1648,
      "ៅ": 1649,
      "ៈ": 1650,
      "់": 1651,
      "៍": 1652,
      "្": 1653,
      "᠍": 1654,
      "᠎": 1655,
      "ᠠ": 1656,
      "ᠡ": 1657,
      "ᠢ": 1658,
      "ᠣ": 1659,
      "ᠤ": 1660,
      "ᠦ": 1661,
      "ᠨ": 1662,
      "ᠪ": 1663,
      "ᠬ": 1664,
      "ᠭ": 1665,
      "ᠮ": 1666,
      "ᠯ": 1667,
      "ᠰ": 1668,
      "ᠲ": 1669,
      "ᠴ": 1670,
      "ᠵ": 1671,
      "ᠷ": 1672,
      "ᢨ": 1673,
      "ᨁ": 1674,
      "ᨅ": 1675,
      "ᨔ": 1676,
      "ᨕ": 1677,
      "ᨗ": 1678,
      "ᨘ": 1679,
      "ᮏ": 1680,
      "ᮝ": 1681,
      "ᴏ": 1682,
      "ᴛ": 1683,
      "ḇ": 1684,
      "ḉ": 1685,
      "ḍ": 1686,
      "ḏ": 1687,
      "ḑ": 1688,
      "ḗ": 1689,
      "ḡ": 1690,
      "Ḥ": 1691,
      "ḥ": 1692,
      "Ḩ": 1693,
      "ḩ": 1694,
      "Ḫ": 1695,
      "ḳ": 1696,
      "ḵ": 1697,
      "ḽ": 1698,
      "ṁ": 1699,
      "ṃ": 1700,
      "ṅ": 1701,
      "Ṇ": 1702,
      "ṇ": 1703,
      "ṛ": 1704,
      "ṣ": 1705,
      "Ṭ": 1706,
      "ṭ": 1707,
      "ṯ": 1708,
      "ṳ": 1709,
      "ṵ": 1710,
      "ẏ": 1711,
      "Ẓ": 1712,
      "ẓ": 1713,
      "Ẕ": 1714,
      "ẕ": 1715,
      "ẖ": 1716,
      "ẞ": 1717,
      "ạ": 1718,
      "Ả": 1719,
      "ả": 1720,
      "Ấ": 1721,
      "ấ": 1722,
      "Ầ": 1723,
      "ầ": 1724,
      "ẩ": 1725,
      "ẫ": 1726,
      "ậ": 1727,
      "ắ": 1728,
      "ằ": 1729,
      "ặ": 1730,
      "ẹ": 1731,
      "Ẻ": 1732,
      "ẻ": 1733,
      "ẽ": 1734,
      "ế": 1735,
      "ề": 1736,
      "Ể": 1737,
      "ể": 1738,
      "ễ": 1739,
      "Ệ": 1740,
      "ệ": 1741,
      "ỉ": 1742,
      "ị": 1743,
      "Ọ": 1744,
      "ọ": 1745,
      "ỏ": 1746,
      "ố": 1747,
      "ồ": 1748,
      "ổ": 1749,
      "ỗ": 1750,
      "ộ": 1751,
      "ớ": 1752,
      "ờ": 1753,
      "ở": 1754,
      "ỡ": 1755,
      "ợ": 1756,
      "ụ": 1757,
      "ủ": 1758,
      "ứ": 1759,
      "Ừ": 1760,
      "ừ": 1761,
      "ử": 1762,
      "ữ": 1763,
      "ự": 1764,
      "ỳ": 1765,
      "ỵ": 1766,
      "Ỷ": 1767,
      "ỷ": 1768,
      "ἀ": 1769,
      "ἁ": 1770,
      "ἂ": 1771,
      "ἃ": 1772,
      "ἄ": 1773,
      "ἅ": 1774,
      "Ἀ": 1775,
      "Ἄ": 1776,
      "ἐ": 1777,
      "ἑ": 1778,
      "ἓ": 1779,
      "ἔ": 1780,
      "ἕ": 1781,
      "Ἐ": 1782,
      "Ἔ": 1783,
      "ἡ": 1784,
      "ἢ": 1785,
      "ἤ": 1786,
      "ἥ": 1787,
      "Ἡ": 1788,
      "ἰ": 1789,
      "ἱ": 1790,
      "ἴ": 1791,
      "ἵ": 1792,
      "ἶ": 1793,
      "ἷ": 1794,
      "Ἰ": 1795,
      "Ἱ": 1796,
      "ὀ": 1797,
      "ὁ": 1798,
      "ὃ": 1799,
      "ὄ": 1800,
      "ὅ": 1801,
      "Ὀ": 1802,
      "ὐ": 1803,
      "ὑ": 1804,
      "ὒ": 1805,
      "ὕ": 1806,
      "ὖ": 1807,
      "ὗ": 1808,
      "Ὑ": 1809,
      "Ὕ": 1810,
      "ὠ": 1811,
      "ὡ": 1812,
      "ὢ": 1813,
      "ὣ": 1814,
      "ὤ": 1815,
      "ὥ": 1816,
      "ὰ": 1817,
      "ὲ": 1818,
      "ὴ": 1819,
      "ὶ": 1820,
      "ὸ": 1821,
      "ὺ": 1822,
      "ᾳ": 1823,
      "ᾶ": 1824,
      "ῃ": 1825,
      "ῆ": 1826,
      "ῇ": 1827,
      "ῖ": 1828,
      "ῠ": 1829,
      "ῤ": 1830,
      "ῥ": 1831,
      "ῦ": 1832,
      "ῳ": 1833,
      "ῶ": 1834,
      "ῷ": 1835,
      "​": 1836,
      "‌": 1837,
      "‍": 1838,
      "‎": 1839,
      "‏": 1840,
      "‐": 1841,
      "‒": 1842,
      "–": 1843,
      "—": 1844,
      "―": 1845,
      "‖": 1846,
      "‘": 1847,
      "’": 1848,
      "‚": 1849,
      "‛": 1850,
      "“": 1851,
      "”": 1852,
      "„": 1853,
      "‟": 1854,
      "†": 1855,
      "‡": 1856,
      "•": 1857,
      "‣": 1858,
      "‧": 1859,
      "‪": 1860,
      "‫": 1861,
      "‬": 1862,
      "‭": 1863,
      "‰": 1864,
      "′": 1865,
      "‹": 1866,
      "›": 1867,
      "※": 1868,
      "‿": 1869,
      "⁃": 1870,
      "⁄": 1871,
      "⁝": 1872,
      "⁠": 1873,
      "⁡": 1874,
      "⁦": 1875,
      "⁩": 1876,
      "⁮": 1877,
      "₡": 1878,
      "₤": 1879,
      "₦": 1880,
      "₩": 1881,
      "₪": 1882,
      "₫": 1883,
      "€": 1884,
      "₱": 1885,
      "₴": 1886,
      "₹": 1887,
      "₺": 1888,
      "₽": 1889,
      "₿": 1890,
      "⃣": 1891,
      "℈": 1892,
      "℔": 1893,
      "℗": 1894,
      "℘": 1895,
      "℥": 1896,
      "←": 1897,
      "↑": 1898,
      "→": 1899,
      "↓": 1900,
      "↔": 1901,
      "↕": 1902,
      "↗": 1903,
      "↞": 1904,
      "↠": 1905,
      "↩": 1906,
      "↰": 1907,
      "↳": 1908,
      "↴": 1909,
      "↵": 1910,
      "↻": 1911,
      "↽": 1912,
      "⇀": 1913,
      "⇇": 1914,
      "⇉": 1915,
      "⇋": 1916,
      "⇐": 1917,
      "⇑": 1918,
      "⇒": 1919,
      "⇓": 1920,
      "⇔": 1921,
      "⇥": 1922,
      "⇦": 1923,
      "⇨": 1924,
      "⇩": 1925,
      "⇵": 1926,
      "∀": 1927,
      "∂": 1928,
      "∅": 1929,
      "∆": 1930,
      "∇": 1931,
      "∈": 1932,
      "∎": 1933,
      "∑": 1934,
      "−": 1935,
      "∕": 1936,
      "∗": 1937,
      "∘": 1938,
      "∙": 1939,
      "√": 1940,
      "∞": 1941,
      "∠": 1942,
      "∥": 1943,
      "∧": 1944,
      "∨": 1945,
      "∩": 1946,
      "∫": 1947,
      "∴": 1948,
      "∼": 1949,
      "≈": 1950,
      "≠": 1951,
      "≡": 1952,
      "≤": 1953,
      "≥": 1954,
      "≦": 1955,
      "≧": 1956,
      "≫": 1957,
      "≮": 1958,
      "⊕": 1959,
      "⊡": 1960,
      "⊰": 1961,
      "⋅": 1962,
      "⋆": 1963,
      "⌀": 1964,
      "⌂": 1965,
      "⌐": 1966,
      "⌠": 1967,
      "⎛": 1968,
      "⎝": 1969,
      "⎞": 1970,
      "⎠": 1971,
      "⏎": 1972,
      "⏫": 1973,
      "⏲": 1974,
      "␙": 1975,
      "─": 1976,
      "│": 1977,
      "┃": 1978,
      "┇": 1979,
      "┌": 1980,
      "┐": 1981,
      "┘": 1982,
      "├": 1983,
      "┬": 1984,
      "═": 1985,
      "║": 1986,
      "╛": 1987,
      "╬": 1988,
      "╰": 1989,
      "█": 1990,
      "▌": 1991,
      "░": 1992,
      "▒": 1993,
      "▓": 1994,
      "■": 1995,
      "□": 1996,
      "▪": 1997,
      "▬": 1998,
      "▲": 1999,
      "△": 2000,
      "▴": 2001,
      "▵": 2002,
      "▶": 2003,
      "▷": 2004,
      "▸": 2005,
      "▹": 2006,
      "►": 2007,
      "▼": 2008,
      "▽": 2009,
      "▾": 2010,
      "◀": 2011,
      "◁": 2012,
      "◂": 2013,
      "◄": 2014,
      "◆": 2015,
      "◇": 2016,
      "◊": 2017,
      "○": 2018,
      "◎": 2019,
      "●": 2020,
      "◖": 2021,
      "◗": 2022,
      "◘": 2023,
      "◢": 2024,
      "◣": 2025,
      "◤": 2026,
      "◥": 2027,
      "◦": 2028,
      "◯": 2029,
      "◾": 2030,
      "☀": 2031,
      "☁": 2032,
      "☃": 2033,
      "☄": 2034,
      "★": 2035,
      "☆": 2036,
      "☈": 2037,
      "☉": 2038,
      "☊": 2039,
      "☋": 2040,
      "☎": 2041,
      "☐": 2042,
      "☑": 2043,
      "☔": 2044,
      "☕": 2045,
      "☘": 2046,
      "☚": 2047,
      "☛": 2048,
      "☝": 2049,
      "☠": 2050,
      "☯": 2051,
      "☰": 2052,
      "☴": 2053,
      "☸": 2054,
      "☹": 2055,
      "☺": 2056,
      "☻": 2057,
      "☼": 2058,
      "☽": 2059,
      "☾": 2060,
      "☿": 2061,
      "♀": 2062,
      "♁": 2063,
      "♂": 2064,
      "♃": 2065,
      "♄": 2066,
      "♅": 2067,
      "♆": 2068,
      "♇": 2069,
      "♈": 2070,
      "♋": 2071,
      "♍": 2072,
      "♎": 2073,
      "♐": 2074,
      "♑": 2075,
      "♓": 2076,
      "♔": 2077,
      "♕": 2078,
      "♘": 2079,
      "♛": 2080,
      "♞": 2081,
      "♠": 2082,
      "♡": 2083,
      "♣": 2084,
      "♥": 2085,
      "♦": 2086,
      "♧": 2087,
      "♪": 2088,
      "♫": 2089,
      "♬": 2090,
      "♭": 2091,
      "♮": 2092,
      "♵": 2093,
      "⚔": 2094,
      "⚖": 2095,
      "⚘": 2096,
      "⚙": 2097,
      "⚛": 2098,
      "⚜": 2099,
      "⚠": 2100,
      "⚡": 2101,
      "⚪": 2102,
      "⚭": 2103,
      "⚳": 2104,
      "⚵": 2105,
      "⚶": 2106,
      "⚽": 2107,
      "⛅": 2108,
      "⛈": 2109,
      "⛢": 2110,
      "⛦": 2111,
      "⛴": 2112,
      "⛺": 2113,
      "✅": 2114,
      "✆": 2115,
      "✈": 2116,
      "✊": 2117,
      "✌": 2118,
      "✍": 2119,
      "✏": 2120,
      "✐": 2121,
      "✓": 2122,
      "✔": 2123,
      "✕": 2124,
      "✖": 2125,
      "✗": 2126,
      "✘": 2127,
      "✚": 2128,
      "✝": 2129,
      "✠": 2130,
      "✦": 2131,
      "✧": 2132,
      "✨": 2133,
      "✪": 2134,
      "✫": 2135,
      "✭": 2136,
      "✮": 2137,
      "✯": 2138,
      "✰": 2139,
      "✶": 2140,
      "✼": 2141,
      "✿": 2142,
      "❀": 2143,
      "❁": 2144,
      "❂": 2145,
      "❄": 2146,
      "❋": 2147,
      "❌": 2148,
      "❎": 2149,
      "❑": 2150,
      "❓": 2151,
      "❖": 2152,
      "❗": 2153,
      "❝": 2154,
      "❞": 2155,
      "❣": 2156,
      "❤": 2157,
      "❥": 2158,
      "❦": 2159,
      "❮": 2160,
      "❯": 2161,
      "❴": 2162,
      "❶": 2163,
      "❷": 2164,
      "❹": 2165,
      "➔": 2166,
      "➕": 2167,
      "➚": 2168,
      "➜": 2169,
      "➞": 2170,
      "➡": 2171,
      "➢": 2172,
      "➤": 2173,
      "➥": 2174,
      "➧": 2175,
      "➰": 2176,
      "➳": 2177,
      "➸": 2178,
      "➺": 2179,
      "➽": 2180,
      "➾": 2181,
      "⟩": 2182,
      "⟵": 2183,
      "⟶": 2184,
      "⟹": 2185,
      "⠀": 2186,
      "⠇": 2187,
      "⡢": 2188,
      "⤒": 2189,
      "⦁": 2190,
      "⨀": 2191,
      "⨁": 2192,
      "⬅": 2193,
      "⬇": 2194,
      "⬡": 2195,
      "⬤": 2196,
      "⬥": 2197,
      "⭐": 2198,
      "⭕": 2199,
      "⮟": 2200,
      "Ⰲ": 2201,
      "Ⰽ": 2202,
      "Ⰾ": 2203,
      "Ⱀ": 2204,
      "Ⱁ": 2205,
      "Ⱄ": 2206,
      "Ⱏ": 2207,
      "Ⱐ": 2208,
      "Ⱑ": 2209,
      "Ɽ": 2210,
      "ⱬ": 2211,
      "Ɑ": 2212,
      "ⲑ": 2213,
      "ⲓ": 2214,
      "ⲣ": 2215,
      "ⲥ": 2216,
      "ⴰ": 2217,
      "ⴱ": 2218,
      "ⴳ": 2219,
      "ⴷ": 2220,
      "ⵉ": 2221,
      "ⵍ": 2222,
      "ⵎ": 2223,
      "ⵏ": 2224,
      "ⵓ": 2225,
      "ⵔ": 2226,
      "ⵖ": 2227,
      "ⵜ": 2228,
      "ⵢ": 2229,
      "ⵣ": 2230,
      "⵳": 2231,
      "⵴": 2232,
      "、": 2233,
      "。": 2234,
      "々": 2235,
      "〇": 2236,
      "〈": 2237,
      "〉": 2238,
      "《": 2239,
      "》": 2240,
      "「": 2241,
      "」": 2242,
      "『": 2243,
      "』": 2244,
      "【": 2245,
      "】": 2246,
      "〔": 2247,
      "〕": 2248,
      "〜": 2249,
      "〰": 2250,
      "ぁ": 2251,
      "あ": 2252,
      "ぃ": 2253,
      "い": 2254,
      "ぅ": 2255,
      "う": 2256,
      "え": 2257,
      "ぉ": 2258,
      "お": 2259,
      "か": 2260,
      "が": 2261,
      "き": 2262,
      "く": 2263,
      "ぐ": 2264,
      "け": 2265,
      "げ": 2266,
      "こ": 2267,
      "ご": 2268,
      "さ": 2269,
      "ざ": 2270,
      "し": 2271,
      "じ": 2272,
      "す": 2273,
      "ず": 2274,
      "せ": 2275,
      "ぜ": 2276,
      "そ": 2277,
      "ぞ": 2278,
      "た": 2279,
      "だ": 2280,
      "ち": 2281,
      "っ": 2282,
      "つ": 2283,
      "づ": 2284,
      "て": 2285,
      "で": 2286,
      "と": 2287,
      "ど": 2288,
      "な": 2289,
      "に": 2290,
      "ぬ": 2291,
      "ね": 2292,
      "の": 2293,
      "は": 2294,
      "ば": 2295,
      "ぱ": 2296,
      "ひ": 2297,
      "び": 2298,
      "ぴ": 2299,
      "ふ": 2300,
      "ぶ": 2301,
      "へ": 2302,
      "べ": 2303,
      "ほ": 2304,
      "ぼ": 2305,
      "ぽ": 2306,
      "ま": 2307,
      "み": 2308,
      "む": 2309,
      "め": 2310,
      "も": 2311,
      "ゃ": 2312,
      "や": 2313,
      "ょ": 2314,
      "よ": 2315,
      "ら": 2316,
      "り": 2317,
      "る": 2318,
      "れ": 2319,
      "ろ": 2320,
      "わ": 2321,
      "を": 2322,
      "ん": 2323,
      "ァ": 2324,
      "ア": 2325,
      "ィ": 2326,
      "イ": 2327,
      "ウ": 2328,
      "ェ": 2329,
      "エ": 2330,
      "ォ": 2331,
      "オ": 2332,
      "カ": 2333,
      "ガ": 2334,
      "キ": 2335,
      "ギ": 2336,
      "ク": 2337,
      "グ": 2338,
      "ケ": 2339,
      "ゲ": 2340,
      "コ": 2341,
      "ゴ": 2342,
      "サ": 2343,
      "ザ": 2344,
      "シ": 2345,
      "ジ": 2346,
      "ス": 2347,
      "ズ": 2348,
      "セ": 2349,
      "ゼ": 2350,
      "ソ": 2351,
      "ゾ": 2352,
      "タ": 2353,
      "ダ": 2354,
      "チ": 2355,
      "ッ": 2356,
      "ツ": 2357,
      "ヅ": 2358,
      "テ": 2359,
      "デ": 2360,
      "ト": 2361,
      "ド": 2362,
      "ナ": 2363,
      "ニ": 2364,
      "ヌ": 2365,
      "ネ": 2366,
      "ノ": 2367,
      "ハ": 2368,
      "バ": 2369,
      "パ": 2370,
      "ヒ": 2371,
      "ビ": 2372,
      "ピ": 2373,
      "フ": 2374,
      "ブ": 2375,
      "プ": 2376,
      "ヘ": 2377,
      "ベ": 2378,
      "ペ": 2379,
      "ホ": 2380,
      "ボ": 2381,
      "ポ": 2382,
      "マ": 2383,
      "ミ": 2384,
      "ム": 2385,
      "メ": 2386,
      "モ": 2387,
      "ャ": 2388,
      "ヤ": 2389,
      "ュ": 2390,
      "ユ": 2391,
      "ョ": 2392,
      "ヨ": 2393,
      "ラ": 2394,
      "リ": 2395,
      "ル": 2396,
      "レ": 2397,
      "ロ": 2398,
      "ワ": 2399,
      "ン": 2400,
      "ヴ": 2401,
      "ヶ": 2402,
      "・": 2403,
      "ー": 2404,
      "ㄉ": 2405,
      "㐱": 2406,
      "㩴": 2407,
      "㬩": 2408,
      "㭦": 2409,
      "㭸": 2410,
      "㵥": 2411,
      "一": 2412,
      "丁": 2413,
      "七": 2414,
      "万": 2415,
      "丈": 2416,
      "三": 2417,
      "上": 2418,
      "下": 2419,
      "不": 2420,
      "与": 2421,
      "专": 2422,
      "且": 2423,
      "世": 2424,
      "丙": 2425,
      "业": 2426,
      "东": 2427,
      "丝": 2428,
      "両": 2429,
      "两": 2430,
      "严": 2431,
      "並": 2432,
      "丧": 2433,
      "个": 2434,
      "中": 2435,
      "丰": 2436,
      "串": 2437,
      "临": 2438,
      "丸": 2439,
      "丹": 2440,
      "为": 2441,
      "主": 2442,
      "丽": 2443,
      "举": 2444,
      "乂": 2445,
      "乃": 2446,
      "久": 2447,
      "么": 2448,
      "义": 2449,
      "之": 2450,
      "乌": 2451,
      "乎": 2452,
      "乏": 2453,
      "乐": 2454,
      "乔": 2455,
      "乗": 2456,
      "乘": 2457,
      "乙": 2458,
      "乜": 2459,
      "九": 2460,
      "乞": 2461,
      "也": 2462,
      "习": 2463,
      "乡": 2464,
      "书": 2465,
      "买": 2466,
      "乱": 2467,
      "乳": 2468,
      "乾": 2469,
      "亀": 2470,
      "了": 2471,
      "予": 2472,
      "争": 2473,
      "事": 2474,
      "二": 2475,
      "于": 2476,
      "云": 2477,
      "互": 2478,
      "五": 2479,
      "井": 2480,
      "亚": 2481,
      "些": 2482,
      "亜": 2483,
      "亞": 2484,
      "亟": 2485,
      "亠": 2486,
      "亡": 2487,
      "交": 2488,
      "亥": 2489,
      "亦": 2490,
      "产": 2491,
      "亩": 2492,
      "享": 2493,
      "京": 2494,
      "亮": 2495,
      "亰": 2496,
      "亲": 2497,
      "亳": 2498,
      "人": 2499,
      "亿": 2500,
      "什": 2501,
      "仂": 2502,
      "仅": 2503,
      "仆": 2504,
      "仇": 2505,
      "今": 2506,
      "介": 2507,
      "仍": 2508,
      "从": 2509,
      "仏": 2510,
      "仔": 2511,
      "仕": 2512,
      "他": 2513,
      "付": 2514,
      "仙": 2515,
      "代": 2516,
      "令": 2517,
      "以": 2518,
      "仪": 2519,
      "们": 2520,
      "仮": 2521,
      "仰": 2522,
      "仲": 2523,
      "件": 2524,
      "价": 2525,
      "任": 2526,
      "份": 2527,
      "企": 2528,
      "伊": 2529,
      "伍": 2530,
      "伏": 2531,
      "伐": 2532,
      "休": 2533,
      "众": 2534,
      "优": 2535,
      "会": 2536,
      "传": 2537,
      "伤": 2538,
      "伦": 2539,
      "伯": 2540,
      "估": 2541,
      "伸": 2542,
      "似": 2543,
      "但": 2544,
      "佈": 2545,
      "位": 2546,
      "低": 2547,
      "住": 2548,
      "佐": 2549,
      "体": 2550,
      "何": 2551,
      "余": 2552,
      "佛": 2553,
      "作": 2554,
      "你": 2555,
      "佳": 2556,
      "併": 2557,
      "使": 2558,
      "來": 2559,
      "例": 2560,
      "供": 2561,
      "依": 2562,
      "価": 2563,
      "侬": 2564,
      "侯": 2565,
      "便": 2566,
      "係": 2567,
      "促": 2568,
      "俄": 2569,
      "俊": 2570,
      "俗": 2571,
      "保": 2572,
      "俞": 2573,
      "俠": 2574,
      "信": 2575,
      "修": 2576,
      "俱": 2577,
      "俳": 2578,
      "倉": 2579,
      "個": 2580,
      "倍": 2581,
      "們": 2582,
      "倒": 2583,
      "候": 2584,
      "借": 2585,
      "倪": 2586,
      "倫": 2587,
      "债": 2588,
      "值": 2589,
      "假": 2590,
      "偏": 2591,
      "偗": 2592,
      "偙": 2593,
      "做": 2594,
      "停": 2595,
      "偣": 2596,
      "健": 2597,
      "側": 2598,
      "偵": 2599,
      "偶": 2600,
      "偿": 2601,
      "傅": 2602,
      "備": 2603,
      "傤": 2604,
      "储": 2605,
      "催": 2606,
      "傲": 2607,
      "傳": 2608,
      "僅": 2609,
      "像": 2610,
      "僧": 2611,
      "僵": 2612,
      "價": 2613,
      "儍": 2614,
      "儎": 2615,
      "儧": 2616,
      "儩": 2617,
      "優": 2618,
      "儮": 2619,
      "儯": 2620,
      "儲": 2621,
      "儵": 2622,
      "儷": 2623,
      "儸": 2624,
      "儿": 2625,
      "允": 2626,
      "元": 2627,
      "兄": 2628,
      "充": 2629,
      "先": 2630,
      "光": 2631,
      "克": 2632,
      "免": 2633,
      "兑": 2634,
      "兒": 2635,
      "兔": 2636,
      "兗": 2637,
      "党": 2638,
      "兜": 2639,
      "入": 2640,
      "內": 2641,
      "全": 2642,
      "兩": 2643,
      "八": 2644,
      "公": 2645,
      "六": 2646,
      "兰": 2647,
      "共": 2648,
      "关": 2649,
      "兴": 2650,
      "兵": 2651,
      "其": 2652,
      "具": 2653,
      "典": 2654,
      "兹": 2655,
      "养": 2656,
      "兼": 2657,
      "冀": 2658,
      "内": 2659,
      "円": 2660,
      "冇": 2661,
      "冉": 2662,
      "冊": 2663,
      "册": 2664,
      "再": 2665,
      "冗": 2666,
      "写": 2667,
      "军": 2668,
      "农": 2669,
      "冠": 2670,
      "冦": 2671,
      "冬": 2672,
      "冯": 2673,
      "冰": 2674,
      "冲": 2675,
      "决": 2676,
      "况": 2677,
      "冶": 2678,
      "冷": 2679,
      "冼": 2680,
      "净": 2681,
      "凄": 2682,
      "准": 2683,
      "凉": 2684,
      "凌": 2685,
      "减": 2686,
      "凝": 2687,
      "几": 2688,
      "凡": 2689,
      "凤": 2690,
      "処": 2691,
      "凭": 2692,
      "凯": 2693,
      "出": 2694,
      "击": 2695,
      "函": 2696,
      "刀": 2697,
      "刁": 2698,
      "分": 2699,
      "切": 2700,
      "刈": 2701,
      "刊": 2702,
      "划": 2703,
      "列": 2704,
      "刘": 2705,
      "则": 2706,
      "刚": 2707,
      "创": 2708,
      "初": 2709,
      "删": 2710,
      "判": 2711,
      "別": 2712,
      "利": 2713,
      "刪": 2714,
      "别": 2715,
      "刮": 2716,
      "到": 2717,
      "制": 2718,
      "刷": 2719,
      "券": 2720,
      "刺": 2721,
      "刻": 2722,
      "剃": 2723,
      "則": 2724,
      "削": 2725,
      "前": 2726,
      "剑": 2727,
      "剣": 2728,
      "剧": 2729,
      "副": 2730,
      "創": 2731,
      "劃": 2732,
      "力": 2733,
      "办": 2734,
      "功": 2735,
      "加": 2736,
      "务": 2737,
      "动": 2738,
      "助": 2739,
      "励": 2740,
      "劳": 2741,
      "効": 2742,
      "势": 2743,
      "勃": 2744,
      "勇": 2745,
      "勉": 2746,
      "勒": 2747,
      "動": 2748,
      "務": 2749,
      "勢": 2750,
      "勤": 2751,
      "勩": 2752,
      "勵": 2753,
      "勾": 2754,
      "包": 2755,
      "匈": 2756,
      "化": 2757,
      "北": 2758,
      "匙": 2759,
      "匝": 2760,
      "匠": 2761,
      "匡": 2762,
      "匹": 2763,
      "区": 2764,
      "医": 2765,
      "匿": 2766,
      "區": 2767,
      "十": 2768,
      "千": 2769,
      "升": 2770,
      "午": 2771,
      "半": 2772,
      "卍": 2773,
      "华": 2774,
      "协": 2775,
      "卓": 2776,
      "協": 2777,
      "单": 2778,
      "卖": 2779,
      "南": 2780,
      "単": 2781,
      "博": 2782,
      "卜": 2783,
      "占": 2784,
      "卡": 2785,
      "卢": 2786,
      "卦": 2787,
      "卧": 2788,
      "卫": 2789,
      "卯": 2790,
      "印": 2791,
      "危": 2792,
      "即": 2793,
      "却": 2794,
      "卷": 2795,
      "卸": 2796,
      "卿": 2797,
      "厂": 2798,
      "厄": 2799,
      "厅": 2800,
      "历": 2801,
      "厉": 2802,
      "压": 2803,
      "厍": 2804,
      "厘": 2805,
      "厚": 2806,
      "原": 2807,
      "厦": 2808,
      "厨": 2809,
      "厳": 2810,
      "去": 2811,
      "县": 2812,
      "参": 2813,
      "參": 2814,
      "又": 2815,
      "叉": 2816,
      "及": 2817,
      "友": 2818,
      "双": 2819,
      "反": 2820,
      "収": 2821,
      "发": 2822,
      "叔": 2823,
      "取": 2824,
      "受": 2825,
      "变": 2826,
      "叙": 2827,
      "口": 2828,
      "古": 2829,
      "句": 2830,
      "另": 2831,
      "只": 2832,
      "叫": 2833,
      "召": 2834,
      "可": 2835,
      "台": 2836,
      "史": 2837,
      "右": 2838,
      "叶": 2839,
      "号": 2840,
      "司": 2841,
      "吁": 2842,
      "吃": 2843,
      "各": 2844,
      "合": 2845,
      "吉": 2846,
      "吋": 2847,
      "同": 2848,
      "名": 2849,
      "后": 2850,
      "吐": 2851,
      "向": 2852,
      "吓": 2853,
      "吕": 2854,
      "吗": 2855,
      "君": 2856,
      "吞": 2857,
      "否": 2858,
      "吧": 2859,
      "吨": 2860,
      "含": 2861,
      "听": 2862,
      "启": 2863,
      "吳": 2864,
      "吴": 2865,
      "吸": 2866,
      "吹": 2867,
      "呂": 2868,
      "呆": 2869,
      "呈": 2870,
      "告": 2871,
      "呐": 2872,
      "员": 2873,
      "呢": 2874,
      "周": 2875,
      "味": 2876,
      "呵": 2877,
      "呼": 2878,
      "命": 2879,
      "咁": 2880,
      "和": 2881,
      "咎": 2882,
      "咖": 2883,
      "咚": 2884,
      "咬": 2885,
      "咸": 2886,
      "咽": 2887,
      "品": 2888,
      "哇": 2889,
      "哈": 2890,
      "响": 2891,
      "員": 2892,
      "哥": 2893,
      "哪": 2894,
      "哲": 2895,
      "唐": 2896,
      "唤": 2897,
      "售": 2898,
      "唯": 2899,
      "唱": 2900,
      "商": 2901,
      "啊": 2902,
      "問": 2903,
      "啡": 2904,
      "啥": 2905,
      "啦": 2906,
      "啵": 2907,
      "喀": 2908,
      "善": 2909,
      "喉": 2910,
      "喊": 2911,
      "喔": 2912,
      "喘": 2913,
      "喜": 2914,
      "喫": 2915,
      "單": 2916,
      "喰": 2917,
      "営": 2918,
      "喷": 2919,
      "喻": 2920,
      "嗎": 2921,
      "嗨": 2922,
      "嘉": 2923,
      "器": 2924,
      "噴": 2925,
      "囉": 2926,
      "囊": 2927,
      "四": 2928,
      "回": 2929,
      "因": 2930,
      "团": 2931,
      "囥": 2932,
      "园": 2933,
      "困": 2934,
      "囲": 2935,
      "図": 2936,
      "围": 2937,
      "固": 2938,
      "国": 2939,
      "图": 2940,
      "圆": 2941,
      "圈": 2942,
      "國": 2943,
      "圍": 2944,
      "圓": 2945,
      "圖": 2946,
      "土": 2947,
      "圣": 2948,
      "圧": 2949,
      "在": 2950,
      "圭": 2951,
      "地": 2952,
      "圳": 2953,
      "场": 2954,
      "址": 2955,
      "坂": 2956,
      "均": 2957,
      "坊": 2958,
      "坏": 2959,
      "坑": 2960,
      "块": 2961,
      "坚": 2962,
      "坛": 2963,
      "坟": 2964,
      "坡": 2965,
      "坦": 2966,
      "坻": 2967,
      "垂": 2968,
      "型": 2969,
      "垣": 2970,
      "埃": 2971,
      "埋": 2972,
      "城": 2973,
      "域": 2974,
      "埠": 2975,
      "基": 2976,
      "堂": 2977,
      "堆": 2978,
      "堡": 2979,
      "堪": 2980,
      "報": 2981,
      "場": 2982,
      "堵": 2983,
      "堺": 2984,
      "塀": 2985,
      "塊": 2986,
      "塔": 2987,
      "塚": 2988,
      "塞": 2989,
      "塩": 2990,
      "境": 2991,
      "墅": 2992,
      "墓": 2993,
      "增": 2994,
      "墨": 2995,
      "壁": 2996,
      "壊": 2997,
      "士": 2998,
      "壬": 2999,
      "壮": 3000,
      "声": 3001,
      "売": 3002,
      "壳": 3003,
      "处": 3004,
      "备": 3005,
      "変": 3006,
      "复": 3007,
      "夏": 3008,
      "夔": 3009,
      "夕": 3010,
      "外": 3011,
      "多": 3012,
      "夜": 3013,
      "夠": 3014,
      "夢": 3015,
      "大": 3016,
      "天": 3017,
      "太": 3018,
      "夫": 3019,
      "央": 3020,
      "失": 3021,
      "头": 3022,
      "夹": 3023,
      "夺": 3024,
      "夾": 3025,
      "奄": 3026,
      "奇": 3027,
      "奈": 3028,
      "奋": 3029,
      "奏": 3030,
      "契": 3031,
      "奖": 3032,
      "套": 3033,
      "奚": 3034,
      "奥": 3035,
      "奧": 3036,
      "女": 3037,
      "奴": 3038,
      "奶": 3039,
      "她": 3040,
      "奻": 3041,
      "好": 3042,
      "如": 3043,
      "妇": 3044,
      "妈": 3045,
      "妊": 3046,
      "妖": 3047,
      "妝": 3048,
      "妞": 3049,
      "妥": 3050,
      "妮": 3051,
      "妹": 3052,
      "妻": 3053,
      "姆": 3054,
      "姉": 3055,
      "始": 3056,
      "姑": 3057,
      "姓": 3058,
      "委": 3059,
      "姚": 3060,
      "姜": 3061,
      "姦": 3062,
      "姫": 3063,
      "姬": 3064,
      "姶": 3065,
      "威": 3066,
      "娄": 3067,
      "娘": 3068,
      "娜": 3069,
      "娠": 3070,
      "娱": 3071,
      "娼": 3072,
      "婆": 3073,
      "婚": 3074,
      "婦": 3075,
      "婴": 3076,
      "婷": 3077,
      "婿": 3078,
      "媒": 3079,
      "嫌": 3080,
      "嫩": 3081,
      "嬉": 3082,
      "子": 3083,
      "孔": 3084,
      "孕": 3085,
      "字": 3086,
      "存": 3087,
      "孙": 3088,
      "孟": 3089,
      "季": 3090,
      "孤": 3091,
      "学": 3092,
      "孩": 3093,
      "孫": 3094,
      "學": 3095,
      "宁": 3096,
      "它": 3097,
      "宅": 3098,
      "宇": 3099,
      "守": 3100,
      "安": 3101,
      "宋": 3102,
      "完": 3103,
      "宍": 3104,
      "宓": 3105,
      "宗": 3106,
      "官": 3107,
      "定": 3108,
      "宛": 3109,
      "宜": 3110,
      "宝": 3111,
      "实": 3112,
      "実": 3113,
      "审": 3114,
      "客": 3115,
      "宣": 3116,
      "室": 3117,
      "宦": 3118,
      "宫": 3119,
      "宮": 3120,
      "宰": 3121,
      "害": 3122,
      "家": 3123,
      "容": 3124,
      "宽": 3125,
      "宾": 3126,
      "宿": 3127,
      "寂": 3128,
      "寄": 3129,
      "寅": 3130,
      "密": 3131,
      "寇": 3132,
      "富": 3133,
      "寒": 3134,
      "寓": 3135,
      "寝": 3136,
      "察": 3137,
      "實": 3138,
      "寧": 3139,
      "寫": 3140,
      "寮": 3141,
      "寸": 3142,
      "对": 3143,
      "寺": 3144,
      "寻": 3145,
      "导": 3146,
      "対": 3147,
      "寿": 3148,
      "封": 3149,
      "専": 3150,
      "射": 3151,
      "将": 3152,
      "將": 3153,
      "專": 3154,
      "尊": 3155,
      "尋": 3156,
      "對": 3157,
      "導": 3158,
      "小": 3159,
      "少": 3160,
      "尔": 3161,
      "尕": 3162,
      "尚": 3163,
      "尝": 3164,
      "尤": 3165,
      "就": 3166,
      "尸": 3167,
      "尹": 3168,
      "尺": 3169,
      "尻": 3170,
      "尼": 3171,
      "尽": 3172,
      "尾": 3173,
      "尿": 3174,
      "局": 3175,
      "屁": 3176,
      "层": 3177,
      "居": 3178,
      "屈": 3179,
      "屋": 3180,
      "屎": 3181,
      "屏": 3182,
      "展": 3183,
      "属": 3184,
      "屠": 3185,
      "屬": 3186,
      "山": 3187,
      "岁": 3188,
      "岑": 3189,
      "岛": 3190,
      "岡": 3191,
      "岩": 3192,
      "岸": 3193,
      "峰": 3194,
      "島": 3195,
      "崎": 3196,
      "崔": 3197,
      "嵇": 3198,
      "嶋": 3199,
      "巅": 3200,
      "川": 3201,
      "州": 3202,
      "巡": 3203,
      "巢": 3204,
      "巣": 3205,
      "工": 3206,
      "左": 3207,
      "巧": 3208,
      "巨": 3209,
      "巩": 3210,
      "巫": 3211,
      "差": 3212,
      "己": 3213,
      "已": 3214,
      "巴": 3215,
      "巻": 3216,
      "币": 3217,
      "市": 3218,
      "布": 3219,
      "师": 3220,
      "希": 3221,
      "帕": 3222,
      "帖": 3223,
      "帝": 3224,
      "带": 3225,
      "師": 3226,
      "席": 3227,
      "帮": 3228,
      "帯": 3229,
      "帶": 3230,
      "常": 3231,
      "帽": 3232,
      "幌": 3233,
      "幡": 3234,
      "幣": 3235,
      "幫": 3236,
      "干": 3237,
      "平": 3238,
      "年": 3239,
      "并": 3240,
      "幸": 3241,
      "幹": 3242,
      "幻": 3243,
      "幼": 3244,
      "幽": 3245,
      "幾": 3246,
      "广": 3247,
      "広": 3248,
      "庄": 3249,
      "床": 3250,
      "序": 3251,
      "库": 3252,
      "应": 3253,
      "底": 3254,
      "店": 3255,
      "庚": 3256,
      "府": 3257,
      "庞": 3258,
      "废": 3259,
      "度": 3260,
      "座": 3261,
      "庫": 3262,
      "庭": 3263,
      "康": 3264,
      "廉": 3265,
      "廊": 3266,
      "廖": 3267,
      "廠": 3268,
      "廣": 3269,
      "廳": 3270,
      "延": 3271,
      "廷": 3272,
      "建": 3273,
      "廿": 3274,
      "开": 3275,
      "异": 3276,
      "弃": 3277,
      "弄": 3278,
      "弊": 3279,
      "弍": 3280,
      "式": 3281,
      "弓": 3282,
      "引": 3283,
      "弗": 3284,
      "弘": 3285,
      "弟": 3286,
      "张": 3287,
      "弱": 3288,
      "張": 3289,
      "強": 3290,
      "弹": 3291,
      "强": 3292,
      "弾": 3293,
      "归": 3294,
      "当": 3295,
      "录": 3296,
      "形": 3297,
      "彦": 3298,
      "彩": 3299,
      "彬": 3300,
      "彭": 3301,
      "彰": 3302,
      "影": 3303,
      "彻": 3304,
      "彼": 3305,
      "往": 3306,
      "征": 3307,
      "径": 3308,
      "待": 3309,
      "很": 3310,
      "律": 3311,
      "後": 3312,
      "徐": 3313,
      "徑": 3314,
      "徒": 3315,
      "従": 3316,
      "得": 3317,
      "從": 3318,
      "御": 3319,
      "循": 3320,
      "微": 3321,
      "徳": 3322,
      "徴": 3323,
      "德": 3324,
      "徽": 3325,
      "心": 3326,
      "必": 3327,
      "忆": 3328,
      "忌": 3329,
      "忍": 3330,
      "志": 3331,
      "忘": 3332,
      "応": 3333,
      "忠": 3334,
      "快": 3335,
      "念": 3336,
      "忽": 3337,
      "怀": 3338,
      "态": 3339,
      "怎": 3340,
      "怒": 3341,
      "怕": 3342,
      "思": 3343,
      "性": 3344,
      "总": 3345,
      "恋": 3346,
      "恐": 3347,
      "恒": 3348,
      "恢": 3349,
      "恩": 3350,
      "息": 3351,
      "恶": 3352,
      "悉": 3353,
      "患": 3354,
      "您": 3355,
      "悪": 3356,
      "悲": 3357,
      "情": 3358,
      "惑": 3359,
      "惠": 3360,
      "惧": 3361,
      "惨": 3362,
      "惯": 3363,
      "惱": 3364,
      "想": 3365,
      "愈": 3366,
      "愉": 3367,
      "意": 3368,
      "愛": 3369,
      "感": 3370,
      "愩": 3371,
      "愿": 3372,
      "慈": 3373,
      "態": 3374,
      "慎": 3375,
      "慕": 3376,
      "慧": 3377,
      "慰": 3378,
      "憾": 3379,
      "應": 3380,
      "懶": 3381,
      "戀": 3382,
      "戈": 3383,
      "戌": 3384,
      "戎": 3385,
      "戏": 3386,
      "成": 3387,
      "我": 3388,
      "戒": 3389,
      "或": 3390,
      "战": 3391,
      "戚": 3392,
      "戦": 3393,
      "截": 3394,
      "戰": 3395,
      "戲": 3396,
      "戴": 3397,
      "戶": 3398,
      "户": 3399,
      "戸": 3400,
      "戻": 3401,
      "房": 3402,
      "所": 3403,
      "扈": 3404,
      "手": 3405,
      "才": 3406,
      "扎": 3407,
      "打": 3408,
      "扔": 3409,
      "払": 3410,
      "托": 3411,
      "扣": 3412,
      "执": 3413,
      "扩": 3414,
      "扫": 3415,
      "扰": 3416,
      "扶": 3417,
      "批": 3418,
      "找": 3419,
      "承": 3420,
      "技": 3421,
      "抄": 3422,
      "把": 3423,
      "抑": 3424,
      "抓": 3425,
      "投": 3426,
      "抗": 3427,
      "折": 3428,
      "択": 3429,
      "抢": 3430,
      "护": 3431,
      "报": 3432,
      "抵": 3433,
      "押": 3434,
      "抽": 3435,
      "担": 3436,
      "拉": 3437,
      "拍": 3438,
      "拒": 3439,
      "拖": 3440,
      "拘": 3441,
      "招": 3442,
      "拜": 3443,
      "拟": 3444,
      "拡": 3445,
      "拥": 3446,
      "拨": 3447,
      "择": 3448,
      "括": 3449,
      "拿": 3450,
      "持": 3451,
      "指": 3452,
      "按": 3453,
      "挑": 3454,
      "挖": 3455,
      "挡": 3456,
      "挥": 3457,
      "挪": 3458,
      "振": 3459,
      "挺": 3460,
      "挿": 3461,
      "捍": 3462,
      "捐": 3463,
      "捕": 3464,
      "捞": 3465,
      "损": 3466,
      "换": 3467,
      "捧": 3468,
      "捨": 3469,
      "据": 3470,
      "捷": 3471,
      "授": 3472,
      "掉": 3473,
      "掌": 3474,
      "排": 3475,
      "掘": 3476,
      "掛": 3477,
      "採": 3478,
      "探": 3479,
      "接": 3480,
      "控": 3481,
      "推": 3482,
      "描": 3483,
      "提": 3484,
      "插": 3485,
      "換": 3486,
      "揭": 3487,
      "援": 3488,
      "搖": 3489,
      "搜": 3490,
      "搞": 3491,
      "搭": 3492,
      "搵": 3493,
      "携": 3494,
      "摂": 3495,
      "摄": 3496,
      "摇": 3497,
      "摊": 3498,
      "摘": 3499,
      "摜": 3500,
      "摩": 3501,
      "摺": 3502,
      "撃": 3503,
      "撑": 3504,
      "播": 3505,
      "撮": 3506,
      "擇": 3507,
      "操": 3508,
      "據": 3509,
      "攝": 3510,
      "支": 3511,
      "收": 3512,
      "改": 3513,
      "攻": 3514,
      "放": 3515,
      "政": 3516,
      "故": 3517,
      "效": 3518,
      "敌": 3519,
      "敏": 3520,
      "救": 3521,
      "敖": 3522,
      "教": 3523,
      "散": 3524,
      "敦": 3525,
      "数": 3526,
      "整": 3527,
      "敵": 3528,
      "敷": 3529,
      "數": 3530,
      "文": 3531,
      "斎": 3532,
      "斐": 3533,
      "斗": 3534,
      "料": 3535,
      "断": 3536,
      "斯": 3537,
      "新": 3538,
      "斷": 3539,
      "方": 3540,
      "於": 3541,
      "施": 3542,
      "旅": 3543,
      "旋": 3544,
      "族": 3545,
      "旗": 3546,
      "无": 3547,
      "既": 3548,
      "日": 3549,
      "旦": 3550,
      "旧": 3551,
      "早": 3552,
      "旭": 3553,
      "时": 3554,
      "昂": 3555,
      "昆": 3556,
      "昌": 3557,
      "明": 3558,
      "昏": 3559,
      "易": 3560,
      "星": 3561,
      "映": 3562,
      "春": 3563,
      "昨": 3564,
      "昭": 3565,
      "是": 3566,
      "显": 3567,
      "晁": 3568,
      "時": 3569,
      "晋": 3570,
      "晏": 3571,
      "晓": 3572,
      "晚": 3573,
      "晨": 3574,
      "普": 3575,
      "景": 3576,
      "晴": 3577,
      "智": 3578,
      "暂": 3579,
      "暗": 3580,
      "暨": 3581,
      "暮": 3582,
      "暴": 3583,
      "曆": 3584,
      "曉": 3585,
      "曜": 3586,
      "曰": 3587,
      "曲": 3588,
      "更": 3589,
      "書": 3590,
      "曹": 3591,
      "曼": 3592,
      "曾": 3593,
      "替": 3594,
      "最": 3595,
      "會": 3596,
      "月": 3597,
      "有": 3598,
      "朋": 3599,
      "服": 3600,
      "朗": 3601,
      "望": 3602,
      "朝": 3603,
      "期": 3604,
      "木": 3605,
      "未": 3606,
      "末": 3607,
      "本": 3608,
      "札": 3609,
      "术": 3610,
      "朱": 3611,
      "朵": 3612,
      "机": 3613,
      "杀": 3614,
      "杂": 3615,
      "权": 3616,
      "杆": 3617,
      "杉": 3618,
      "李": 3619,
      "杏": 3620,
      "材": 3621,
      "村": 3622,
      "杓": 3623,
      "杜": 3624,
      "束": 3625,
      "条": 3626,
      "来": 3627,
      "杨": 3628,
      "杭": 3629,
      "杰": 3630,
      "東": 3631,
      "松": 3632,
      "板": 3633,
      "极": 3634,
      "构": 3635,
      "析": 3636,
      "枕": 3637,
      "林": 3638,
      "枚": 3639,
      "果": 3640,
      "枝": 3641,
      "柄": 3642,
      "柏": 3643,
      "某": 3644,
      "染": 3645,
      "柔": 3646,
      "柚": 3647,
      "柜": 3648,
      "柠": 3649,
      "查": 3650,
      "柯": 3651,
      "柳": 3652,
      "柴": 3653,
      "栃": 3654,
      "标": 3655,
      "栏": 3656,
      "树": 3657,
      "校": 3658,
      "株": 3659,
      "样": 3660,
      "核": 3661,
      "根": 3662,
      "格": 3663,
      "栾": 3664,
      "桀": 3665,
      "桂": 3666,
      "框": 3667,
      "案": 3668,
      "桌": 3669,
      "桐": 3670,
      "桑": 3671,
      "桜": 3672,
      "档": 3673,
      "桥": 3674,
      "桶": 3675,
      "梁": 3676,
      "梅": 3677,
      "條": 3678,
      "梦": 3679,
      "梨": 3680,
      "梯": 3681,
      "械": 3682,
      "检": 3683,
      "棋": 3684,
      "棒": 3685,
      "棕": 3686,
      "棚": 3687,
      "棟": 3688,
      "森": 3689,
      "棱": 3690,
      "植": 3691,
      "検": 3692,
      "椰": 3693,
      "楊": 3694,
      "楚": 3695,
      "楥": 3696,
      "業": 3697,
      "極": 3698,
      "楼": 3699,
      "楽": 3700,
      "概": 3701,
      "榜": 3702,
      "槍": 3703,
      "様": 3704,
      "槻": 3705,
      "樂": 3706,
      "樊": 3707,
      "樓": 3708,
      "標": 3709,
      "模": 3710,
      "樣": 3711,
      "権": 3712,
      "横": 3713,
      "樹": 3714,
      "樽": 3715,
      "橋": 3716,
      "機": 3717,
      "橡": 3718,
      "橿": 3719,
      "檀": 3720,
      "檔": 3721,
      "檬": 3722,
      "權": 3723,
      "欠": 3724,
      "次": 3725,
      "欢": 3726,
      "欣": 3727,
      "欧": 3728,
      "欲": 3729,
      "款": 3730,
      "歇": 3731,
      "歉": 3732,
      "歌": 3733,
      "歐": 3734,
      "歡": 3735,
      "止": 3736,
      "正": 3737,
      "此": 3738,
      "步": 3739,
      "武": 3740,
      "歩": 3741,
      "歳": 3742,
      "歴": 3743,
      "死": 3744,
      "殊": 3745,
      "残": 3746,
      "殖": 3747,
      "殳": 3748,
      "殴": 3749,
      "段": 3750,
      "殷": 3751,
      "殺": 3752,
      "殿": 3753,
      "毁": 3754,
      "毋": 3755,
      "母": 3756,
      "毎": 3757,
      "每": 3758,
      "毒": 3759,
      "毓": 3760,
      "比": 3761,
      "毕": 3762,
      "毛": 3763,
      "毫": 3764,
      "氏": 3765,
      "民": 3766,
      "氓": 3767,
      "气": 3768,
      "気": 3769,
      "氢": 3770,
      "氨": 3771,
      "水": 3772,
      "氷": 3773,
      "永": 3774,
      "求": 3775,
      "汇": 3776,
      "汉": 3777,
      "汚": 3778,
      "江": 3779,
      "池": 3780,
      "汤": 3781,
      "汪": 3782,
      "汲": 3783,
      "決": 3784,
      "汽": 3785,
      "沃": 3786,
      "沈": 3787,
      "沉": 3788,
      "沒": 3789,
      "沙": 3790,
      "没": 3791,
      "沢": 3792,
      "沪": 3793,
      "河": 3794,
      "油": 3795,
      "治": 3796,
      "沼": 3797,
      "沿": 3798,
      "況": 3799,
      "泉": 3800,
      "泊": 3801,
      "法": 3802,
      "泛": 3803,
      "波": 3804,
      "泣": 3805,
      "泥": 3806,
      "注": 3807,
      "泰": 3808,
      "泽": 3809,
      "洁": 3810,
      "洋": 3811,
      "洗": 3812,
      "洛": 3813,
      "洞": 3814,
      "津": 3815,
      "洪": 3816,
      "洲": 3817,
      "活": 3818,
      "派": 3819,
      "流": 3820,
      "浅": 3821,
      "测": 3822,
      "济": 3823,
      "浏": 3824,
      "浑": 3825,
      "浓": 3826,
      "浜": 3827,
      "浦": 3828,
      "浩": 3829,
      "浪": 3830,
      "浴": 3831,
      "海": 3832,
      "涂": 3833,
      "消": 3834,
      "涉": 3835,
      "涌": 3836,
      "涙": 3837,
      "润": 3838,
      "涨": 3839,
      "涵": 3840,
      "淀": 3841,
      "淡": 3842,
      "淫": 3843,
      "深": 3844,
      "混": 3845,
      "淺": 3846,
      "添": 3847,
      "清": 3848,
      "済": 3849,
      "渐": 3850,
      "渡": 3851,
      "温": 3852,
      "測": 3853,
      "港": 3854,
      "游": 3855,
      "湖": 3856,
      "湯": 3857,
      "湾": 3858,
      "満": 3859,
      "源": 3860,
      "準": 3861,
      "溪": 3862,
      "滋": 3863,
      "滑": 3864,
      "滕": 3865,
      "滝": 3866,
      "滞": 3867,
      "满": 3868,
      "滿": 3869,
      "漂": 3870,
      "漆": 3871,
      "漏": 3872,
      "演": 3873,
      "漢": 3874,
      "漫": 3875,
      "漿": 3876,
      "潍": 3877,
      "潘": 3878,
      "潜": 3879,
      "潟": 3880,
      "潤": 3881,
      "潮": 3882,
      "澄": 3883,
      "澤": 3884,
      "澳": 3885,
      "激": 3886,
      "濕": 3887,
      "濡": 3888,
      "濮": 3889,
      "濾": 3890,
      "瀏": 3891,
      "灣": 3892,
      "火": 3893,
      "灯": 3894,
      "灲": 3895,
      "灵": 3896,
      "灾": 3897,
      "灿": 3898,
      "炒": 3899,
      "炪": 3900,
      "点": 3901,
      "為": 3902,
      "烈": 3903,
      "烏": 3904,
      "烟": 3905,
      "烧": 3906,
      "热": 3907,
      "無": 3908,
      "焦": 3909,
      "焰": 3910,
      "然": 3911,
      "焼": 3912,
      "煊": 3913,
      "煙": 3914,
      "照": 3915,
      "煩": 3916,
      "煮": 3917,
      "熊": 3918,
      "熔": 3919,
      "熟": 3920,
      "熱": 3921,
      "燎": 3922,
      "燒": 3923,
      "燕": 3924,
      "營": 3925,
      "爆": 3926,
      "爪": 3927,
      "爭": 3928,
      "爱": 3929,
      "爵": 3930,
      "父": 3931,
      "爾": 3932,
      "片": 3933,
      "版": 3934,
      "牌": 3935,
      "牙": 3936,
      "牛": 3937,
      "牧": 3938,
      "物": 3939,
      "牲": 3940,
      "特": 3941,
      "牺": 3942,
      "犀": 3943,
      "犬": 3944,
      "犯": 3945,
      "状": 3946,
      "狀": 3947,
      "狄": 3948,
      "狐": 3949,
      "狗": 3950,
      "狩": 3951,
      "独": 3952,
      "狭": 3953,
      "狱": 3954,
      "猎": 3955,
      "猥": 3956,
      "猫": 3957,
      "献": 3958,
      "獨": 3959,
      "獲": 3960,
      "獵": 3961,
      "率": 3962,
      "玉": 3963,
      "王": 3964,
      "玛": 3965,
      "玩": 3966,
      "环": 3967,
      "现": 3968,
      "玲": 3969,
      "玻": 3970,
      "珂": 3971,
      "珍": 3972,
      "珞": 3973,
      "珠": 3974,
      "班": 3975,
      "現": 3976,
      "球": 3977,
      "理": 3978,
      "琉": 3979,
      "琳": 3980,
      "琴": 3981,
      "琵": 3982,
      "瑙": 3983,
      "瑞": 3984,
      "瑳": 3985,
      "瑶": 3986,
      "璃": 3987,
      "璠": 3988,
      "璧": 3989,
      "璩": 3990,
      "環": 3991,
      "瓜": 3992,
      "瓣": 3993,
      "瓦": 3994,
      "甄": 3995,
      "甘": 3996,
      "甚": 3997,
      "甜": 3998,
      "生": 3999,
      "產": 4000,
      "産": 4001,
      "用": 4002,
      "田": 4003,
      "由": 4004,
      "甲": 4005,
      "申": 4006,
      "电": 4007,
      "男": 4008,
      "町": 4009,
      "画": 4010,
      "畅": 4011,
      "界": 4012,
      "畏": 4013,
      "留": 4014,
      "畡": 4015,
      "略": 4016,
      "番": 4017,
      "畫": 4018,
      "異": 4019,
      "畳": 4020,
      "當": 4021,
      "畿": 4022,
      "疆": 4023,
      "疑": 4024,
      "疯": 4025,
      "疾": 4026,
      "病": 4027,
      "痕": 4028,
      "痛": 4029,
      "痞": 4030,
      "痴": 4031,
      "瘋": 4032,
      "瘤": 4033,
      "瘾": 4034,
      "癌": 4035,
      "癲": 4036,
      "癸": 4037,
      "発": 4038,
      "登": 4039,
      "發": 4040,
      "白": 4041,
      "百": 4042,
      "的": 4043,
      "皆": 4044,
      "皇": 4045,
      "皮": 4046,
      "盈": 4047,
      "益": 4048,
      "监": 4049,
      "盒": 4050,
      "盖": 4051,
      "盗": 4052,
      "盘": 4053,
      "盛": 4054,
      "盜": 4055,
      "盡": 4056,
      "盤": 4057,
      "盧": 4058,
      "目": 4059,
      "盲": 4060,
      "直": 4061,
      "相": 4062,
      "盹": 4063,
      "盼": 4064,
      "盾": 4065,
      "省": 4066,
      "看": 4067,
      "県": 4068,
      "真": 4069,
      "眠": 4070,
      "眼": 4071,
      "眾": 4072,
      "着": 4073,
      "睐": 4074,
      "睡": 4075,
      "督": 4076,
      "睿": 4077,
      "瞳": 4078,
      "矛": 4079,
      "矢": 4080,
      "知": 4081,
      "短": 4082,
      "石": 4083,
      "矿": 4084,
      "码": 4085,
      "砂": 4086,
      "研": 4087,
      "砥": 4088,
      "破": 4089,
      "砺": 4090,
      "础": 4091,
      "硬": 4092,
      "确": 4093,
      "碎": 4094,
      "碑": 4095,
      "碗": 4096,
      "碟": 4097,
      "碰": 4098,
      "碳": 4099,
      "確": 4100,
      "碼": 4101,
      "磁": 4102,
      "磊": 4103,
      "磐": 4104,
      "示": 4105,
      "礼": 4106,
      "社": 4107,
      "祁": 4108,
      "祈": 4109,
      "祐": 4110,
      "祖": 4111,
      "祝": 4112,
      "神": 4113,
      "祢": 4114,
      "祥": 4115,
      "票": 4116,
      "祷": 4117,
      "禁": 4118,
      "禄": 4119,
      "福": 4120,
      "禪": 4121,
      "禮": 4122,
      "禹": 4123,
      "离": 4124,
      "秀": 4125,
      "私": 4126,
      "秋": 4127,
      "种": 4128,
      "科": 4129,
      "秒": 4130,
      "秘": 4131,
      "租": 4132,
      "秦": 4133,
      "积": 4134,
      "称": 4135,
      "移": 4136,
      "稀": 4137,
      "程": 4138,
      "稍": 4139,
      "税": 4140,
      "稚": 4141,
      "種": 4142,
      "稱": 4143,
      "稲": 4144,
      "稳": 4145,
      "稿": 4146,
      "穂": 4147,
      "穆": 4148,
      "穌": 4149,
      "積": 4150,
      "究": 4151,
      "穷": 4152,
      "空": 4153,
      "穿": 4154,
      "突": 4155,
      "窓": 4156,
      "窦": 4157,
      "窩": 4158,
      "竈": 4159,
      "立": 4160,
      "站": 4161,
      "竜": 4162,
      "竞": 4163,
      "竟": 4164,
      "章": 4165,
      "童": 4166,
      "端": 4167,
      "竹": 4168,
      "笑": 4169,
      "笔": 4170,
      "符": 4171,
      "笨": 4172,
      "第": 4173,
      "笺": 4174,
      "筆": 4175,
      "等": 4176,
      "筋": 4177,
      "筑": 4178,
      "筒": 4179,
      "答": 4180,
      "策": 4181,
      "筹": 4182,
      "签": 4183,
      "简": 4184,
      "算": 4185,
      "管": 4186,
      "箱": 4187,
      "箴": 4188,
      "範": 4189,
      "篇": 4190,
      "篠": 4191,
      "篩": 4192,
      "篮": 4193,
      "簡": 4194,
      "簿": 4195,
      "籌": 4196,
      "籍": 4197,
      "籤": 4198,
      "米": 4199,
      "类": 4200,
      "粉": 4201,
      "粟": 4202,
      "粤": 4203,
      "粱": 4204,
      "粵": 4205,
      "粹": 4206,
      "精": 4207,
      "糕": 4208,
      "糖": 4209,
      "糜": 4210,
      "糞": 4211,
      "糸": 4212,
      "系": 4213,
      "紀": 4214,
      "約": 4215,
      "紅": 4216,
      "紋": 4217,
      "納": 4218,
      "紎": 4219,
      "純": 4220,
      "紙": 4221,
      "級": 4222,
      "素": 4223,
      "索": 4224,
      "紫": 4225,
      "累": 4226,
      "細": 4227,
      "紹": 4228,
      "組": 4229,
      "経": 4230,
      "結": 4231,
      "絡": 4232,
      "給": 4233,
      "統": 4234,
      "絶": 4235,
      "經": 4236,
      "続": 4237,
      "綜": 4238,
      "綠": 4239,
      "維": 4240,
      "綱": 4241,
      "網": 4242,
      "綾": 4243,
      "緊": 4244,
      "総": 4245,
      "緑": 4246,
      "線": 4247,
      "編": 4248,
      "縛": 4249,
      "縱": 4250,
      "總": 4251,
      "繁": 4252,
      "繪": 4253,
      "繫": 4254,
      "红": 4255,
      "约": 4256,
      "级": 4257,
      "纪": 4258,
      "纯": 4259,
      "纳": 4260,
      "纶": 4261,
      "纸": 4262,
      "纹": 4263,
      "线": 4264,
      "练": 4265,
      "组": 4266,
      "细": 4267,
      "织": 4268,
      "终": 4269,
      "绍": 4270,
      "经": 4271,
      "结": 4272,
      "绕": 4273,
      "给": 4274,
      "络": 4275,
      "绝": 4276,
      "统": 4277,
      "继": 4278,
      "绩": 4279,
      "续": 4280,
      "维": 4281,
      "综": 4282,
      "绿": 4283,
      "缀": 4284,
      "缆": 4285,
      "缉": 4286,
      "缔": 4287,
      "编": 4288,
      "缩": 4289,
      "缪": 4290,
      "缺": 4291,
      "罐": 4292,
      "网": 4293,
      "罕": 4294,
      "罗": 4295,
      "罪": 4296,
      "置": 4297,
      "罰": 4298,
      "羅": 4299,
      "羊": 4300,
      "美": 4301,
      "羞": 4302,
      "群": 4303,
      "義": 4304,
      "羽": 4305,
      "羿": 4306,
      "翁": 4307,
      "翅": 4308,
      "習": 4309,
      "翔": 4310,
      "翟": 4311,
      "翰": 4312,
      "翳": 4313,
      "翻": 4314,
      "翼": 4315,
      "老": 4316,
      "考": 4317,
      "者": 4318,
      "而": 4319,
      "耐": 4320,
      "耦": 4321,
      "耳": 4322,
      "耶": 4323,
      "耻": 4324,
      "耿": 4325,
      "聂": 4326,
      "聊": 4327,
      "职": 4328,
      "联": 4329,
      "聖": 4330,
      "聘": 4331,
      "聚": 4332,
      "聞": 4333,
      "聯": 4334,
      "聲": 4335,
      "職": 4336,
      "聽": 4337,
      "肉": 4338,
      "肌": 4339,
      "肖": 4340,
      "肛": 4341,
      "肠": 4342,
      "股": 4343,
      "肢": 4344,
      "肥": 4345,
      "肪": 4346,
      "肯": 4347,
      "育": 4348,
      "胁": 4349,
      "胆": 4350,
      "背": 4351,
      "胜": 4352,
      "胡": 4353,
      "胥": 4354,
      "胶": 4355,
      "胸": 4356,
      "能": 4357,
      "脂": 4358,
      "脅": 4359,
      "脆": 4360,
      "脇": 4361,
      "脉": 4362,
      "脐": 4363,
      "脚": 4364,
      "脛": 4365,
      "脯": 4366,
      "脱": 4367,
      "脸": 4368,
      "腊": 4369,
      "腐": 4370,
      "腕": 4371,
      "腦": 4372,
      "腳": 4373,
      "腸": 4374,
      "腾": 4375,
      "膀": 4376,
      "膜": 4377,
      "膣": 4378,
      "臀": 4379,
      "臘": 4380,
      "臧": 4381,
      "自": 4382,
      "至": 4383,
      "致": 4384,
      "臺": 4385,
      "與": 4386,
      "興": 4387,
      "舉": 4388,
      "舊": 4389,
      "舍": 4390,
      "舎": 4391,
      "舐": 4392,
      "舒": 4393,
      "舞": 4394,
      "航": 4395,
      "般": 4396,
      "舰": 4397,
      "船": 4398,
      "艘": 4399,
      "良": 4400,
      "艰": 4401,
      "色": 4402,
      "艶": 4403,
      "艺": 4404,
      "艾": 4405,
      "节": 4406,
      "芝": 4407,
      "芦": 4408,
      "芪": 4409,
      "芬": 4410,
      "芮": 4411,
      "芯": 4412,
      "花": 4413,
      "芸": 4414,
      "苍": 4415,
      "苏": 4416,
      "苑": 4417,
      "苗": 4418,
      "若": 4419,
      "苦": 4420,
      "苫": 4421,
      "英": 4422,
      "苹": 4423,
      "茂": 4424,
      "范": 4425,
      "茅": 4426,
      "茉": 4427,
      "茎": 4428,
      "茨": 4429,
      "茲": 4430,
      "茶": 4431,
      "茹": 4432,
      "荀": 4433,
      "荆": 4434,
      "草": 4435,
      "荐": 4436,
      "荒": 4437,
      "荡": 4438,
      "荣": 4439,
      "荷": 4440,
      "莆": 4441,
      "莉": 4442,
      "莎": 4443,
      "莘": 4444,
      "莨": 4445,
      "莫": 4446,
      "莱": 4447,
      "获": 4448,
      "菊": 4449,
      "菜": 4450,
      "菠": 4451,
      "華": 4452,
      "菲": 4453,
      "萄": 4454,
      "萌": 4455,
      "萝": 4456,
      "萤": 4457,
      "营": 4458,
      "萧": 4459,
      "萨": 4460,
      "萩": 4461,
      "萬": 4462,
      "落": 4463,
      "葉": 4464,
      "著": 4465,
      "葛": 4466,
      "葡": 4467,
      "董": 4468,
      "蒂": 4469,
      "蒋": 4470,
      "蒙": 4471,
      "蒯": 4472,
      "蒲": 4473,
      "蒸": 4474,
      "蒼": 4475,
      "蒿": 4476,
      "蓄": 4477,
      "蓋": 4478,
      "蓝": 4479,
      "蓟": 4480,
      "蓬": 4481,
      "蓮": 4482,
      "蓼": 4483,
      "蔓": 4484,
      "蔔": 4485,
      "蔚": 4486,
      "蔡": 4487,
      "蔬": 4488,
      "蔵": 4489,
      "蔺": 4490,
      "蕨": 4491,
      "薄": 4492,
      "薛": 4493,
      "薩": 4494,
      "薪": 4495,
      "薬": 4496,
      "藍": 4497,
      "藏": 4498,
      "藝": 4499,
      "藤": 4500,
      "藻": 4501,
      "蘇": 4502,
      "蘭": 4503,
      "蘿": 4504,
      "虎": 4505,
      "虐": 4506,
      "虚": 4507,
      "虞": 4508,
      "號": 4509,
      "虫": 4510,
      "虽": 4511,
      "蛇": 4512,
      "蛋": 4513,
      "蛙": 4514,
      "蛳": 4515,
      "蛾": 4516,
      "蜂": 4517,
      "蜜": 4518,
      "融": 4519,
      "螺": 4520,
      "蟲": 4521,
      "蠔": 4522,
      "血": 4523,
      "衆": 4524,
      "行": 4525,
      "衍": 4526,
      "術": 4527,
      "街": 4528,
      "衛": 4529,
      "衡": 4530,
      "衣": 4531,
      "补": 4532,
      "表": 4533,
      "袁": 4534,
      "袋": 4535,
      "袖": 4536,
      "袜": 4537,
      "被": 4538,
      "袭": 4539,
      "裁": 4540,
      "装": 4541,
      "裘": 4542,
      "裙": 4543,
      "補": 4544,
      "裝": 4545,
      "裡": 4546,
      "裤": 4547,
      "裴": 4548,
      "裸": 4549,
      "製": 4550,
      "裾": 4551,
      "複": 4552,
      "褐": 4553,
      "褲": 4554,
      "襲": 4555,
      "西": 4556,
      "要": 4557,
      "覆": 4558,
      "覇": 4559,
      "見": 4560,
      "規": 4561,
      "視": 4562,
      "覗": 4563,
      "覧": 4564,
      "親": 4565,
      "観": 4566,
      "覺": 4567,
      "覽": 4568,
      "见": 4569,
      "观": 4570,
      "规": 4571,
      "视": 4572,
      "览": 4573,
      "角": 4574,
      "解": 4575,
      "触": 4576,
      "觸": 4577,
      "言": 4578,
      "訂": 4579,
      "計": 4580,
      "訊": 4581,
      "討": 4582,
      "訓": 4583,
      "託": 4584,
      "記": 4585,
      "訪": 4586,
      "設": 4587,
      "許": 4588,
      "訳": 4589,
      "訴": 4590,
      "註": 4591,
      "証": 4592,
      "訾": 4593,
      "評": 4594,
      "詞": 4595,
      "試": 4596,
      "話": 4597,
      "該": 4598,
      "詳": 4599,
      "詹": 4600,
      "誉": 4601,
      "誌": 4602,
      "認": 4603,
      "誓": 4604,
      "語": 4605,
      "誤": 4606,
      "說": 4607,
      "説": 4608,
      "読": 4609,
      "誰": 4610,
      "課": 4611,
      "調": 4612,
      "談": 4613,
      "請": 4614,
      "諏": 4615,
      "論": 4616,
      "諫": 4617,
      "諸": 4618,
      "諾": 4619,
      "證": 4620,
      "識": 4621,
      "警": 4622,
      "譯": 4623,
      "議": 4624,
      "護": 4625,
      "讀": 4626,
      "讃": 4627,
      "變": 4628,
      "讚": 4629,
      "计": 4630,
      "订": 4631,
      "认": 4632,
      "讨": 4633,
      "让": 4634,
      "训": 4635,
      "议": 4636,
      "讯": 4637,
      "记": 4638,
      "讲": 4639,
      "讳": 4640,
      "许": 4641,
      "论": 4642,
      "设": 4643,
      "访": 4644,
      "证": 4645,
      "评": 4646,
      "识": 4647,
      "诈": 4648,
      "诉": 4649,
      "诊": 4650,
      "诋": 4651,
      "词": 4652,
      "译": 4653,
      "试": 4654,
      "诚": 4655,
      "话": 4656,
      "诞": 4657,
      "询": 4658,
      "该": 4659,
      "详": 4660,
      "语": 4661,
      "误": 4662,
      "诱": 4663,
      "说": 4664,
      "请": 4665,
      "诸": 4666,
      "诺": 4667,
      "读": 4668,
      "课": 4669,
      "谁": 4670,
      "调": 4671,
      "谈": 4672,
      "谋": 4673,
      "谐": 4674,
      "谢": 4675,
      "谦": 4676,
      "谧": 4677,
      "谨": 4678,
      "谭": 4679,
      "谱": 4680,
      "谷": 4681,
      "豆": 4682,
      "豊": 4683,
      "象": 4684,
      "豪": 4685,
      "豫": 4686,
      "貓": 4687,
      "貞": 4688,
      "財": 4689,
      "貨": 4690,
      "販": 4691,
      "買": 4692,
      "費": 4693,
      "貼": 4694,
      "貿": 4695,
      "賀": 4696,
      "資": 4697,
      "賓": 4698,
      "賞": 4699,
      "賠": 4700,
      "賣": 4701,
      "賦": 4702,
      "質": 4703,
      "購": 4704,
      "贛": 4705,
      "贝": 4706,
      "负": 4707,
      "贡": 4708,
      "财": 4709,
      "责": 4710,
      "败": 4711,
      "货": 4712,
      "质": 4713,
      "贫": 4714,
      "购": 4715,
      "贲": 4716,
      "贵": 4717,
      "贸": 4718,
      "费": 4719,
      "贺": 4720,
      "贾": 4721,
      "赁": 4722,
      "赃": 4723,
      "资": 4724,
      "赋": 4725,
      "赏": 4726,
      "赔": 4727,
      "赖": 4728,
      "赚": 4729,
      "赛": 4730,
      "赢": 4731,
      "赣": 4732,
      "赤": 4733,
      "赦": 4734,
      "赫": 4735,
      "走": 4736,
      "赵": 4737,
      "起": 4738,
      "超": 4739,
      "越": 4740,
      "趋": 4741,
      "趟": 4742,
      "趣": 4743,
      "足": 4744,
      "趾": 4745,
      "跃": 4746,
      "跌": 4747,
      "距": 4748,
      "跟": 4749,
      "跡": 4750,
      "路": 4751,
      "跳": 4752,
      "践": 4753,
      "踏": 4754,
      "踐": 4755,
      "蹴": 4756,
      "身": 4757,
      "車": 4758,
      "軍": 4759,
      "軒": 4760,
      "軟": 4761,
      "転": 4762,
      "載": 4763,
      "輕": 4764,
      "輪": 4765,
      "輯": 4766,
      "輸": 4767,
      "轉": 4768,
      "车": 4769,
      "轩": 4770,
      "转": 4771,
      "轮": 4772,
      "软": 4773,
      "轴": 4774,
      "轻": 4775,
      "载": 4776,
      "较": 4777,
      "辅": 4778,
      "辆": 4779,
      "辉": 4780,
      "辑": 4781,
      "输": 4782,
      "辛": 4783,
      "辦": 4784,
      "辰": 4785,
      "辱": 4786,
      "農": 4787,
      "边": 4788,
      "辺": 4789,
      "込": 4790,
      "辽": 4791,
      "达": 4792,
      "迅": 4793,
      "过": 4794,
      "迈": 4795,
      "迎": 4796,
      "运": 4797,
      "近": 4798,
      "返": 4799,
      "还": 4800,
      "这": 4801,
      "进": 4802,
      "远": 4803,
      "违": 4804,
      "连": 4805,
      "迪": 4806,
      "迫": 4807,
      "述": 4808,
      "迷": 4809,
      "迸": 4810,
      "追": 4811,
      "退": 4812,
      "送": 4813,
      "适": 4814,
      "逄": 4815,
      "选": 4816,
      "逊": 4817,
      "透": 4818,
      "逐": 4819,
      "途": 4820,
      "逗": 4821,
      "這": 4822,
      "通": 4823,
      "速": 4824,
      "造": 4825,
      "連": 4826,
      "週": 4827,
      "進": 4828,
      "逼": 4829,
      "逾": 4830,
      "遇": 4831,
      "遊": 4832,
      "運": 4833,
      "遍": 4834,
      "過": 4835,
      "道": 4836,
      "達": 4837,
      "遗": 4838,
      "遠": 4839,
      "遣": 4840,
      "遥": 4841,
      "適": 4842,
      "遭": 4843,
      "遮": 4844,
      "遵": 4845,
      "選": 4846,
      "遺": 4847,
      "避": 4848,
      "邁": 4849,
      "還": 4850,
      "邊": 4851,
      "邓": 4852,
      "邕": 4853,
      "邢": 4854,
      "那": 4855,
      "邦": 4856,
      "邬": 4857,
      "邮": 4858,
      "邱": 4859,
      "邴": 4860,
      "邵": 4861,
      "邹": 4862,
      "郁": 4863,
      "郎": 4864,
      "郏": 4865,
      "郑": 4866,
      "郗": 4867,
      "郜": 4868,
      "郝": 4869,
      "郡": 4870,
      "郦": 4871,
      "部": 4872,
      "郭": 4873,
      "郵": 4874,
      "都": 4875,
      "鄂": 4876,
      "鄰": 4877,
      "鄱": 4878,
      "酆": 4879,
      "酉": 4880,
      "酋": 4881,
      "配": 4882,
      "酒": 4883,
      "酔": 4884,
      "酥": 4885,
      "酬": 4886,
      "酯": 4887,
      "酷": 4888,
      "酸": 4889,
      "醉": 4890,
      "醒": 4891,
      "醣": 4892,
      "醫": 4893,
      "采": 4894,
      "释": 4895,
      "里": 4896,
      "重": 4897,
      "野": 4898,
      "量": 4899,
      "金": 4900,
      "釧": 4901,
      "鈴": 4902,
      "鉄": 4903,
      "鉾": 4904,
      "銀": 4905,
      "銈": 4906,
      "銉": 4907,
      "銷": 4908,
      "鋭": 4909,
      "鋸": 4910,
      "鋼": 4911,
      "錄": 4912,
      "錢": 4913,
      "錦": 4914,
      "錯": 4915,
      "録": 4916,
      "鍵": 4917,
      "鎮": 4918,
      "鏡": 4919,
      "鐘": 4920,
      "鑫": 4921,
      "针": 4922,
      "钓": 4923,
      "钟": 4924,
      "钢": 4925,
      "钥": 4926,
      "钭": 4927,
      "钮": 4928,
      "钱": 4929,
      "钻": 4930,
      "铁": 4931,
      "铃": 4932,
      "铅": 4933,
      "银": 4934,
      "铺": 4935,
      "链": 4936,
      "销": 4937,
      "锈": 4938,
      "锋": 4939,
      "错": 4940,
      "锡": 4941,
      "键": 4942,
      "镇": 4943,
      "镜": 4944,
      "長": 4945,
      "长": 4946,
      "門": 4947,
      "閉": 4948,
      "開": 4949,
      "間": 4950,
      "閟": 4951,
      "関": 4952,
      "閲": 4953,
      "闇": 4954,
      "關": 4955,
      "门": 4956,
      "闭": 4957,
      "问": 4958,
      "间": 4959,
      "闵": 4960,
      "闹": 4961,
      "闻": 4962,
      "阁": 4963,
      "阅": 4964,
      "阎": 4965,
      "阙": 4966,
      "阚": 4967,
      "队": 4968,
      "阪": 4969,
      "阭": 4970,
      "阮": 4971,
      "阱": 4972,
      "防": 4973,
      "阳": 4974,
      "阴": 4975,
      "阵": 4976,
      "阶": 4977,
      "阻": 4978,
      "阿": 4979,
      "陀": 4980,
      "附": 4981,
      "际": 4982,
      "陆": 4983,
      "陈": 4984,
      "降": 4985,
      "限": 4986,
      "陞": 4987,
      "院": 4988,
      "除": 4989,
      "险": 4990,
      "陰": 4991,
      "陶": 4992,
      "陷": 4993,
      "陸": 4994,
      "陽": 4995,
      "隆": 4996,
      "隊": 4997,
      "階": 4998,
      "随": 4999,
      "隐": 5000,
      "隔": 5001,
      "隗": 5002,
      "際": 5003,
      "障": 5004,
      "隠": 5005,
      "隣": 5006,
      "險": 5007,
      "隶": 5008,
      "隷": 5009,
      "隸": 5010,
      "隻": 5011,
      "难": 5012,
      "雄": 5013,
      "雅": 5014,
      "集": 5015,
      "雌": 5016,
      "雍": 5017,
      "雑": 5018,
      "雖": 5019,
      "雙": 5020,
      "雜": 5021,
      "雞": 5022,
      "離": 5023,
      "難": 5024,
      "雨": 5025,
      "雪": 5026,
      "雰": 5027,
      "雲": 5028,
      "雷": 5029,
      "電": 5030,
      "需": 5031,
      "震": 5032,
      "霍": 5033,
      "霖": 5034,
      "霜": 5035,
      "霞": 5036,
      "霧": 5037,
      "露": 5038,
      "霸": 5039,
      "青": 5040,
      "静": 5041,
      "非": 5042,
      "靠": 5043,
      "面": 5044,
      "革": 5045,
      "靳": 5046,
      "靶": 5047,
      "鞄": 5048,
      "鞋": 5049,
      "鞠": 5050,
      "韓": 5051,
      "韦": 5052,
      "韩": 5053,
      "音": 5054,
      "韵": 5055,
      "韶": 5056,
      "響": 5057,
      "頁": 5058,
      "頂": 5059,
      "項": 5060,
      "須": 5061,
      "預": 5062,
      "領": 5063,
      "頭": 5064,
      "頻": 5065,
      "頼": 5066,
      "題": 5067,
      "額": 5068,
      "顏": 5069,
      "顔": 5070,
      "願": 5071,
      "類": 5072,
      "顯": 5073,
      "页": 5074,
      "顶": 5075,
      "项": 5076,
      "顺": 5077,
      "须": 5078,
      "顾": 5079,
      "顿": 5080,
      "颂": 5081,
      "预": 5082,
      "领": 5083,
      "频": 5084,
      "题": 5085,
      "颜": 5086,
      "额": 5087,
      "颡": 5088,
      "風": 5089,
      "风": 5090,
      "飛": 5091,
      "飞": 5092,
      "食": 5093,
      "飯": 5094,
      "飲": 5095,
      "飾": 5096,
      "餅": 5097,
      "養": 5098,
      "餐": 5099,
      "餘": 5100,
      "館": 5101,
      "饭": 5102,
      "饮": 5103,
      "饰": 5104,
      "饱": 5105,
      "饶": 5106,
      "饼": 5107,
      "馆": 5108,
      "馈": 5109,
      "首": 5110,
      "香": 5111,
      "馬": 5112,
      "駅": 5113,
      "駐": 5114,
      "駒": 5115,
      "騎": 5116,
      "験": 5117,
      "騙": 5118,
      "騨": 5119,
      "驗": 5120,
      "驟": 5121,
      "马": 5122,
      "驱": 5123,
      "驹": 5124,
      "驻": 5125,
      "驼": 5126,
      "驾": 5127,
      "骄": 5128,
      "骆": 5129,
      "验": 5130,
      "骏": 5131,
      "骗": 5132,
      "骚": 5133,
      "骡": 5134,
      "骤": 5135,
      "骨": 5136,
      "髋": 5137,
      "髒": 5138,
      "體": 5139,
      "高": 5140,
      "髪": 5141,
      "鬱": 5142,
      "鬼": 5143,
      "魂": 5144,
      "魅": 5145,
      "魏": 5146,
      "魔": 5147,
      "魚": 5148,
      "魯": 5149,
      "鮨": 5150,
      "鯨": 5151,
      "鱼": 5152,
      "鲁": 5153,
      "鲍": 5154,
      "鲜": 5155,
      "鲠": 5156,
      "鲤": 5157,
      "鲫": 5158,
      "鳥": 5159,
      "鴨": 5160,
      "鴻": 5161,
      "鶏": 5162,
      "鶴": 5163,
      "鷄": 5164,
      "鷲": 5165,
      "鷹": 5166,
      "鸟": 5167,
      "鸦": 5168,
      "鸿": 5169,
      "鹃": 5170,
      "鹏": 5171,
      "鹭": 5172,
      "鹱": 5173,
      "鹿": 5174,
      "麥": 5175,
      "麦": 5176,
      "麩": 5177,
      "麻": 5178,
      "麼": 5179,
      "黃": 5180,
      "黄": 5181,
      "黎": 5182,
      "黑": 5183,
      "黒": 5184,
      "默": 5185,
      "點": 5186,
      "鼎": 5187,
      "鼓": 5188,
      "齐": 5189,
      "龍": 5190,
      "龙": 5191,
      "龚": 5192,
      "ꂽ": 5193,
      "ꏊ": 5194,
      "ꜣ": 5195,
      "ꦗ": 5196,
      "ꦧ": 5197,
      "ꦮ": 5198,
      "ꦱ": 5199,
      "가": 5200,
      "각": 5201,
      "간": 5202,
      "갈": 5203,
      "감": 5204,
      "강": 5205,
      "같": 5206,
      "개": 5207,
      "객": 5208,
      "거": 5209,
      "건": 5210,
      "걸": 5211,
      "검": 5212,
      "겁": 5213,
      "것": 5214,
      "게": 5215,
      "겔": 5216,
      "겠": 5217,
      "겨": 5218,
      "격": 5219,
      "견": 5220,
      "결": 5221,
      "경": 5222,
      "계": 5223,
      "고": 5224,
      "곡": 5225,
      "골": 5226,
      "곳": 5227,
      "공": 5228,
      "과": 5229,
      "관": 5230,
      "교": 5231,
      "구": 5232,
      "국": 5233,
      "군": 5234,
      "굴": 5235,
      "궁": 5236,
      "권": 5237,
      "귀": 5238,
      "그": 5239,
      "근": 5240,
      "글": 5241,
      "금": 5242,
      "급": 5243,
      "기": 5244,
      "긴": 5245,
      "길": 5246,
      "김": 5247,
      "깁": 5248,
      "까": 5249,
      "께": 5250,
      "껴": 5251,
      "꽃": 5252,
      "꿈": 5253,
      "뀌": 5254,
      "끊": 5255,
      "끌": 5256,
      "끔": 5257,
      "끼": 5258,
      "낌": 5259,
      "나": 5260,
      "난": 5261,
      "날": 5262,
      "남": 5263,
      "낭": 5264,
      "낳": 5265,
      "내": 5266,
      "냇": 5267,
      "냐": 5268,
      "너": 5269,
      "널": 5270,
      "넣": 5271,
      "네": 5272,
      "넷": 5273,
      "녀": 5274,
      "녁": 5275,
      "년": 5276,
      "념": 5277,
      "녕": 5278,
      "노": 5279,
      "놈": 5280,
      "농": 5281,
      "놓": 5282,
      "누": 5283,
      "눈": 5284,
      "뉴": 5285,
      "느": 5286,
      "는": 5287,
      "늘": 5288,
      "늡": 5289,
      "능": 5290,
      "니": 5291,
      "님": 5292,
      "다": 5293,
      "단": 5294,
      "닫": 5295,
      "달": 5296,
      "담": 5297,
      "답": 5298,
      "닷": 5299,
      "당": 5300,
      "닻": 5301,
      "대": 5302,
      "댓": 5303,
      "더": 5304,
      "덕": 5305,
      "던": 5306,
      "덜": 5307,
      "데": 5308,
      "덴": 5309,
      "델": 5310,
      "도": 5311,
      "독": 5312,
      "돌": 5313,
      "동": 5314,
      "되": 5315,
      "된": 5316,
      "될": 5317,
      "두": 5318,
      "둘": 5319,
      "뒈": 5320,
      "뒤": 5321,
      "드": 5322,
      "득": 5323,
      "든": 5324,
      "들": 5325,
      "등": 5326,
      "디": 5327,
      "딘": 5328,
      "따": 5329,
      "딸": 5330,
      "땅": 5331,
      "때": 5332,
      "떠": 5333,
      "떤": 5334,
      "떨": 5335,
      "떻": 5336,
      "또": 5337,
      "똑": 5338,
      "뜨": 5339,
      "라": 5340,
      "락": 5341,
      "란": 5342,
      "람": 5343,
      "랍": 5344,
      "랐": 5345,
      "랑": 5346,
      "래": 5347,
      "랙": 5348,
      "랜": 5349,
      "램": 5350,
      "랩": 5351,
      "략": 5352,
      "량": 5353,
      "러": 5354,
      "런": 5355,
      "럴": 5356,
      "럼": 5357,
      "럽": 5358,
      "렇": 5359,
      "레": 5360,
      "렌": 5361,
      "려": 5362,
      "력": 5363,
      "렴": 5364,
      "렸": 5365,
      "로": 5366,
      "록": 5367,
      "론": 5368,
      "료": 5369,
      "루": 5370,
      "룹": 5371,
      "류": 5372,
      "르": 5373,
      "른": 5374,
      "를": 5375,
      "름": 5376,
      "리": 5377,
      "릴": 5378,
      "림": 5379,
      "립": 5380,
      "릿": 5381,
      "링": 5382,
      "마": 5383,
      "막": 5384,
      "만": 5385,
      "많": 5386,
      "말": 5387,
      "맛": 5388,
      "망": 5389,
      "맞": 5390,
      "매": 5391,
      "맨": 5392,
      "머": 5393,
      "먹": 5394,
      "메": 5395,
      "멜": 5396,
      "며": 5397,
      "면": 5398,
      "멸": 5399,
      "명": 5400,
      "모": 5401,
      "목": 5402,
      "몰": 5403,
      "못": 5404,
      "묘": 5405,
      "무": 5406,
      "문": 5407,
      "물": 5408,
      "뭐": 5409,
      "뭔": 5410,
      "뭘": 5411,
      "미": 5412,
      "민": 5413,
      "밀": 5414,
      "밍": 5415,
      "및": 5416,
      "바": 5417,
      "박": 5418,
      "반": 5419,
      "받": 5420,
      "발": 5421,
      "밝": 5422,
      "밤": 5423,
      "밥": 5424,
      "방": 5425,
      "배": 5426,
      "백": 5427,
      "밴": 5428,
      "뱉": 5429,
      "버": 5430,
      "번": 5431,
      "벌": 5432,
      "법": 5433,
      "베": 5434,
      "벨": 5435,
      "벽": 5436,
      "변": 5437,
      "별": 5438,
      "병": 5439,
      "보": 5440,
      "복": 5441,
      "본": 5442,
      "볼": 5443,
      "부": 5444,
      "분": 5445,
      "불": 5446,
      "브": 5447,
      "블": 5448,
      "비": 5449,
      "빈": 5450,
      "빌": 5451,
      "빛": 5452,
      "빠": 5453,
      "빨": 5454,
      "빼": 5455,
      "뽑": 5456,
      "사": 5457,
      "산": 5458,
      "살": 5459,
      "삼": 5460,
      "삽": 5461,
      "상": 5462,
      "새": 5463,
      "색": 5464,
      "샘": 5465,
      "생": 5466,
      "샬": 5467,
      "서": 5468,
      "선": 5469,
      "설": 5470,
      "섬": 5471,
      "성": 5472,
      "세": 5473,
      "섹": 5474,
      "센": 5475,
      "셀": 5476,
      "셉": 5477,
      "셋": 5478,
      "션": 5479,
      "소": 5480,
      "속": 5481,
      "손": 5482,
      "솔": 5483,
      "송": 5484,
      "쇄": 5485,
      "수": 5486,
      "숙": 5487,
      "순": 5488,
      "술": 5489,
      "쉬": 5490,
      "쉽": 5491,
      "스": 5492,
      "슨": 5493,
      "슬": 5494,
      "습": 5495,
      "승": 5496,
      "시": 5497,
      "식": 5498,
      "신": 5499,
      "실": 5500,
      "싫": 5501,
      "심": 5502,
      "십": 5503,
      "싱": 5504,
      "싶": 5505,
      "싸": 5506,
      "쌠": 5507,
      "쏟": 5508,
      "쓰": 5509,
      "씀": 5510,
      "씨": 5511,
      "아": 5512,
      "악": 5513,
      "안": 5514,
      "앉": 5515,
      "않": 5516,
      "알": 5517,
      "암": 5518,
      "앗": 5519,
      "았": 5520,
      "앙": 5521,
      "애": 5522,
      "액": 5523,
      "앱": 5524,
      "야": 5525,
      "약": 5526,
      "양": 5527,
      "얘": 5528,
      "어": 5529,
      "억": 5530,
      "언": 5531,
      "얼": 5532,
      "엄": 5533,
      "업": 5534,
      "없": 5535,
      "엇": 5536,
      "었": 5537,
      "엉": 5538,
      "에": 5539,
      "엑": 5540,
      "엘": 5541,
      "여": 5542,
      "역": 5543,
      "연": 5544,
      "열": 5545,
      "였": 5546,
      "영": 5547,
      "예": 5548,
      "오": 5549,
      "온": 5550,
      "올": 5551,
      "옵": 5552,
      "옹": 5553,
      "와": 5554,
      "완": 5555,
      "왔": 5556,
      "왕": 5557,
      "왜": 5558,
      "외": 5559,
      "요": 5560,
      "용": 5561,
      "우": 5562,
      "욱": 5563,
      "운": 5564,
      "울": 5565,
      "웃": 5566,
      "워": 5567,
      "원": 5568,
      "월": 5569,
      "웠": 5570,
      "웨": 5571,
      "웹": 5572,
      "위": 5573,
      "윌": 5574,
      "유": 5575,
      "육": 5576,
      "윤": 5577,
      "율": 5578,
      "으": 5579,
      "은": 5580,
      "을": 5581,
      "음": 5582,
      "읍": 5583,
      "응": 5584,
      "의": 5585,
      "이": 5586,
      "인": 5587,
      "일": 5588,
      "임": 5589,
      "입": 5590,
      "있": 5591,
      "자": 5592,
      "작": 5593,
      "잘": 5594,
      "잡": 5595,
      "장": 5596,
      "재": 5597,
      "쟁": 5598,
      "쟝": 5599,
      "저": 5600,
      "적": 5601,
      "전": 5602,
      "절": 5603,
      "점": 5604,
      "접": 5605,
      "정": 5606,
      "젖": 5607,
      "제": 5608,
      "젠": 5609,
      "젤": 5610,
      "져": 5611,
      "조": 5612,
      "족": 5613,
      "존": 5614,
      "졸": 5615,
      "종": 5616,
      "좆": 5617,
      "좋": 5618,
      "죠": 5619,
      "주": 5620,
      "준": 5621,
      "줄": 5622,
      "줍": 5623,
      "중": 5624,
      "줘": 5625,
      "줬": 5626,
      "즈": 5627,
      "즉": 5628,
      "즘": 5629,
      "증": 5630,
      "지": 5631,
      "직": 5632,
      "진": 5633,
      "질": 5634,
      "집": 5635,
      "짜": 5636,
      "짧": 5637,
      "짱": 5638,
      "째": 5639,
      "쭉": 5640,
      "찌": 5641,
      "차": 5642,
      "찰": 5643,
      "참": 5644,
      "창": 5645,
      "찾": 5646,
      "채": 5647,
      "책": 5648,
      "처": 5649,
      "천": 5650,
      "철": 5651,
      "첨": 5652,
      "첫": 5653,
      "청": 5654,
      "체": 5655,
      "쳐": 5656,
      "쳤": 5657,
      "초": 5658,
      "촌": 5659,
      "총": 5660,
      "최": 5661,
      "추": 5662,
      "축": 5663,
      "출": 5664,
      "취": 5665,
      "츠": 5666,
      "측": 5667,
      "층": 5668,
      "치": 5669,
      "친": 5670,
      "카": 5671,
      "칸": 5672,
      "칼": 5673,
      "커": 5674,
      "컨": 5675,
      "컬": 5676,
      "컴": 5677,
      "케": 5678,
      "켰": 5679,
      "코": 5680,
      "콘": 5681,
      "콜": 5682,
      "쿠": 5683,
      "퀴": 5684,
      "크": 5685,
      "클": 5686,
      "키": 5687,
      "킬": 5688,
      "타": 5689,
      "탁": 5690,
      "탄": 5691,
      "탈": 5692,
      "태": 5693,
      "택": 5694,
      "터": 5695,
      "턴": 5696,
      "테": 5697,
      "텐": 5698,
      "텔": 5699,
      "토": 5700,
      "톤": 5701,
      "통": 5702,
      "투": 5703,
      "트": 5704,
      "특": 5705,
      "티": 5706,
      "틴": 5707,
      "팀": 5708,
      "팅": 5709,
      "파": 5710,
      "판": 5711,
      "팔": 5712,
      "팝": 5713,
      "패": 5714,
      "퍼": 5715,
      "펑": 5716,
      "페": 5717,
      "펴": 5718,
      "펼": 5719,
      "포": 5720,
      "폴": 5721,
      "표": 5722,
      "품": 5723,
      "풋": 5724,
      "퓔": 5725,
      "프": 5726,
      "플": 5727,
      "픔": 5728,
      "피": 5729,
      "픽": 5730,
      "핀": 5731,
      "필": 5732,
      "핑": 5733,
      "하": 5734,
      "학": 5735,
      "한": 5736,
      "할": 5737,
      "함": 5738,
      "합": 5739,
      "항": 5740,
      "해": 5741,
      "했": 5742,
      "행": 5743,
      "향": 5744,
      "험": 5745,
      "헛": 5746,
      "헤": 5747,
      "혀": 5748,
      "현": 5749,
      "혈": 5750,
      "협": 5751,
      "형": 5752,
      "호": 5753,
      "혹": 5754,
      "홍": 5755,
      "화": 5756,
      "환": 5757,
      "활": 5758,
      "황": 5759,
      "회": 5760,
      "획": 5761,
      "후": 5762,
      "훈": 5763,
      "흥": 5764,
      "희": 5765,
      "흽": 5766,
      "히": 5767,
      "힉": 5768,
      "힌": 5769,
      "힐": 5770,
      "힘": 5771,
      "": 5772,
      "": 5773,
      "": 5774,
      "": 5775,
      "": 5776,
      "": 5777,
      "": 5778,
      "": 5779,
      "": 5780,
      "": 5781,
      "": 5782,
      "": 5783,
      "": 5784,
      "": 5785,
      "": 5786,
      "": 5787,
      "": 5788,
      "": 5789,
      "": 5790,
      "": 5791,
      "": 5792,
      "": 5793,
      "": 5794,
      "": 5795,
      "": 5796,
      "": 5797,
      "": 5798,
      "": 5799,
      "": 5800,
      "": 5801,
      "": 5802,
      "": 5803,
      "": 5804,
      "": 5805,
      "": 5806,
      "": 5807,
      "": 5808,
      "": 5809,
      "": 5810,
      "": 5811,
      "": 5812,
      "": 5813,
      "": 5814,
      "": 5815,
      "": 5816,
      "": 5817,
      "": 5818,
      "": 5819,
      "": 5820,
      "": 5821,
      "": 5822,
      "": 5823,
      "": 5824,
      "": 5825,
      "": 5826,
      "": 5827,
      "": 5828,
      "": 5829,
      "": 5830,
      "": 5831,
      "": 5832,
      "": 5833,
      "": 5834,
      "": 5835,
      "": 5836,
      "": 5837,
      "": 5838,
      "": 5839,
      "": 5840,
      "": 5841,
      "": 5842,
      "": 5843,
      "": 5844,
      "": 5845,
      "": 5846,
      "": 5847,
      "": 5848,
      "": 5849,
      "": 5850,
      "": 5851,
      "": 5852,
      "": 5853,
      "": 5854,
      "": 5855,
      "": 5856,
      "": 5857,
      "": 5858,
      "": 5859,
      "": 5860,
      "": 5861,
      "": 5862,
      "": 5863,
      "": 5864,
      "": 5865,
      "": 5866,
      "": 5867,
      "": 5868,
      "": 5869,
      "": 5870,
      "": 5871,
      "": 5872,
      "": 5873,
      "": 5874,
      "": 5875,
      "": 5876,
      "": 5877,
      "": 5878,
      "": 5879,
      "": 5880,
      "": 5881,
      "": 5882,
      "": 5883,
      "": 5884,
      "": 5885,
      "": 5886,
      "": 5887,
      "": 5888,
      "": 5889,
      "": 5890,
      "": 5891,
      "": 5892,
      "": 5893,
      "": 5894,
      "": 5895,
      "": 5896,
      "": 5897,
      "": 5898,
      "": 5899,
      "": 5900,
      "": 5901,
      "": 5902,
      "": 5903,
      "": 5904,
      "": 5905,
      "": 5906,
      "": 5907,
      "": 5908,
      "": 5909,
      "": 5910,
      "": 5911,
      "": 5912,
      "": 5913,
      "": 5914,
      "": 5915,
      "": 5916,
      "": 5917,
      "": 5918,
      "": 5919,
      "": 5920,
      "": 5921,
      "": 5922,
      "": 5923,
      "": 5924,
      "": 5925,
      "": 5926,
      "": 5927,
      "": 5928,
      "": 5929,
      "": 5930,
      "": 5931,
      "": 5932,
      "": 5933,
      "": 5934,
      "": 5935,
      "": 5936,
      "": 5937,
      "": 5938,
      "": 5939,
      "": 5940,
      "": 5941,
      "": 5942,
      "": 5943,
      "": 5944,
      "": 5945,
      "": 5946,
      "": 5947,
      "": 5948,
      "": 5949,
      "": 5950,
      "": 5951,
      "": 5952,
      "": 5953,
      "": 5954,
      "": 5955,
      "": 5956,
      "": 5957,
      "": 5958,
      "": 5959,
      "": 5960,
      "": 5961,
      "": 5962,
      "": 5963,
      "": 5964,
      "": 5965,
      "": 5966,
      "": 5967,
      "": 5968,
      "": 5969,
      "": 5970,
      "": 5971,
      "": 5972,
      "": 5973,
      "": 5974,
      "": 5975,
      "": 5976,
      "": 5977,
      "": 5978,
      "": 5979,
      "": 5980,
      "": 5981,
      "": 5982,
      "": 5983,
      "": 5984,
      "": 5985,
      "": 5986,
      "": 5987,
      "": 5988,
      "": 5989,
      "": 5990,
      "": 5991,
      "": 5992,
      "": 5993,
      "": 5994,
      "": 5995,
      "": 5996,
      "": 5997,
      "": 5998,
      "": 5999,
      "": 6000,
      "": 6001,
      "": 6002,
      "": 6003,
      "": 6004,
      "": 6005,
      "": 6006,
      "": 6007,
      "": 6008,
      "": 6009,
      "": 6010,
      "": 6011,
      "": 6012,
      "": 6013,
      "": 6014,
      "": 6015,
      "": 6016,
      "": 6017,
      "": 6018,
      "": 6019,
      "": 6020,
      "": 6021,
      "": 6022,
      "": 6023,
      "": 6024,
      "": 6025,
      "": 6026,
      "": 6027,
      "": 6028,
      "": 6029,
      "": 6030,
      "": 6031,
      "": 6032,
      "": 6033,
      "": 6034,
      "": 6035,
      "": 6036,
      "": 6037,
      "": 6038,
      "": 6039,
      "": 6040,
      "": 6041,
      "": 6042,
      "": 6043,
      "": 6044,
      "": 6045,
      "": 6046,
      "": 6047,
      "": 6048,
      "": 6049,
      "": 6050,
      "": 6051,
      "": 6052,
      "": 6053,
      "": 6054,
      "": 6055,
      "": 6056,
      "": 6057,
      "": 6058,
      "": 6059,
      "": 6060,
      "": 6061,
      "": 6062,
      "": 6063,
      "": 6064,
      "": 6065,
      "": 6066,
      "": 6067,
      "": 6068,
      "": 6069,
      "": 6070,
      "": 6071,
      "": 6072,
      "": 6073,
      "": 6074,
      "": 6075,
      "": 6076,
      "": 6077,
      "": 6078,
      "": 6079,
      "": 6080,
      "": 6081,
      "": 6082,
      "": 6083,
      "": 6084,
      "": 6085,
      "": 6086,
      "": 6087,
      "": 6088,
      "": 6089,
      "": 6090,
      "": 6091,
      "": 6092,
      "": 6093,
      "": 6094,
      "": 6095,
      "": 6096,
      "": 6097,
      "": 6098,
      "": 6099,
      "": 6100,
      "": 6101,
      "": 6102,
      "": 6103,
      "": 6104,
      "": 6105,
      "": 6106,
      "": 6107,
      "": 6108,
      "": 6109,
      "": 6110,
      "": 6111,
      "": 6112,
      "": 6113,
      "": 6114,
      "": 6115,
      "": 6116,
      "": 6117,
      "": 6118,
      "": 6119,
      "": 6120,
      "": 6121,
      "": 6122,
      "": 6123,
      "": 6124,
      "": 6125,
      "": 6126,
      "": 6127,
      "": 6128,
      "": 6129,
      "": 6130,
      "": 6131,
      "": 6132,
      "": 6133,
      "": 6134,
      "": 6135,
      "": 6136,
      "": 6137,
      "": 6138,
      "": 6139,
      "": 6140,
      "": 6141,
      "": 6142,
      "": 6143,
      "": 6144,
      "": 6145,
      "": 6146,
      "": 6147,
      "": 6148,
      "": 6149,
      "": 6150,
      "": 6151,
      "": 6152,
      "": 6153,
      "": 6154,
      "": 6155,
      "": 6156,
      "": 6157,
      "": 6158,
      "": 6159,
      "": 6160,
      "": 6161,
      "": 6162,
      "": 6163,
      "": 6164,
      "": 6165,
      "": 6166,
      "": 6167,
      "": 6168,
      "": 6169,
      "": 6170,
      "": 6171,
      "": 6172,
      "": 6173,
      "": 6174,
      "": 6175,
      "": 6176,
      "": 6177,
      "": 6178,
      "": 6179,
      "": 6180,
      "": 6181,
      "": 6182,
      "": 6183,
      "": 6184,
      "": 6185,
      "": 6186,
      "": 6187,
      "": 6188,
      "": 6189,
      "": 6190,
      "": 6191,
      "": 6192,
      "": 6193,
      "": 6194,
      "": 6195,
      "": 6196,
      "": 6197,
      "": 6198,
      "": 6199,
      "": 6200,
      "": 6201,
      "": 6202,
      "": 6203,
      "": 6204,
      "": 6205,
      "": 6206,
      "": 6207,
      "": 6208,
      "": 6209,
      "": 6210,
      "": 6211,
      "": 6212,
      "": 6213,
      "": 6214,
      "": 6215,
      "": 6216,
      "": 6217,
      "": 6218,
      "": 6219,
      "": 6220,
      "": 6221,
      "": 6222,
      "": 6223,
      "": 6224,
      "": 6225,
      "": 6226,
      "": 6227,
      "": 6228,
      "": 6229,
      "": 6230,
      "": 6231,
      "": 6232,
      "": 6233,
      "": 6234,
      "": 6235,
      "": 6236,
      "": 6237,
      "": 6238,
      "": 6239,
      "": 6240,
      "": 6241,
      "": 6242,
      "": 6243,
      "": 6244,
      "": 6245,
      "": 6246,
      "": 6247,
      "": 6248,
      "": 6249,
      "": 6250,
      "": 6251,
      "": 6252,
      "": 6253,
      "": 6254,
      "": 6255,
      "": 6256,
      "": 6257,
      "": 6258,
      "": 6259,
      "": 6260,
      "": 6261,
      "": 6262,
      "": 6263,
      "": 6264,
      "": 6265,
      "": 6266,
      "": 6267,
      "": 6268,
      "": 6269,
      "": 6270,
      "": 6271,
      "": 6272,
      "": 6273,
      "": 6274,
      "": 6275,
      "": 6276,
      "": 6277,
      "": 6278,
      "": 6279,
      "": 6280,
      "": 6281,
      "": 6282,
      "": 6283,
      "": 6284,
      "": 6285,
      "": 6286,
      "": 6287,
      "": 6288,
      "": 6289,
      "": 6290,
      "": 6291,
      "": 6292,
      "": 6293,
      "": 6294,
      "": 6295,
      "": 6296,
      "": 6297,
      "": 6298,
      "": 6299,
      "": 6300,
      "": 6301,
      "": 6302,
      "": 6303,
      "": 6304,
      "": 6305,
      "": 6306,
      "": 6307,
      "": 6308,
      "": 6309,
      "": 6310,
      "": 6311,
      "": 6312,
      "": 6313,
      "": 6314,
      "": 6315,
      "": 6316,
      "": 6317,
      "": 6318,
      "": 6319,
      "": 6320,
      "": 6321,
      "": 6322,
      "": 6323,
      "": 6324,
      "": 6325,
      "": 6326,
      "": 6327,
      "": 6328,
      "": 6329,
      "": 6330,
      "": 6331,
      "": 6332,
      "": 6333,
      "": 6334,
      "": 6335,
      "": 6336,
      "": 6337,
      "": 6338,
      "": 6339,
      "": 6340,
      "": 6341,
      "": 6342,
      "": 6343,
      "": 6344,
      "": 6345,
      "": 6346,
      "": 6347,
      "": 6348,
      "": 6349,
      "": 6350,
      "": 6351,
      "": 6352,
      "": 6353,
      "": 6354,
      "": 6355,
      "": 6356,
      "": 6357,
      "": 6358,
      "": 6359,
      "": 6360,
      "": 6361,
      "": 6362,
      "": 6363,
      "": 6364,
      "": 6365,
      "": 6366,
      "": 6367,
      "": 6368,
      "": 6369,
      "": 6370,
      "": 6371,
      "": 6372,
      "": 6373,
      "": 6374,
      "": 6375,
      "": 6376,
      "": 6377,
      "": 6378,
      "": 6379,
      "": 6380,
      "": 6381,
      "": 6382,
      "": 6383,
      "": 6384,
      "": 6385,
      "": 6386,
      "": 6387,
      "": 6388,
      "": 6389,
      "": 6390,
      "": 6391,
      "": 6392,
      "": 6393,
      "": 6394,
      "": 6395,
      "": 6396,
      "": 6397,
      "": 6398,
      "": 6399,
      "": 6400,
      "": 6401,
      "": 6402,
      "": 6403,
      "": 6404,
      "": 6405,
      "": 6406,
      "": 6407,
      "": 6408,
      "": 6409,
      "": 6410,
      "": 6411,
      "": 6412,
      "": 6413,
      "": 6414,
      "": 6415,
      "": 6416,
      "": 6417,
      "": 6418,
      "": 6419,
      "": 6420,
      "": 6421,
      "": 6422,
      "": 6423,
      "": 6424,
      "": 6425,
      "": 6426,
      "": 6427,
      "": 6428,
      "": 6429,
      "": 6430,
      "": 6431,
      "": 6432,
      "": 6433,
      "": 6434,
      "": 6435,
      "": 6436,
      "": 6437,
      "": 6438,
      "": 6439,
      "": 6440,
      "": 6441,
      "": 6442,
      "": 6443,
      "": 6444,
      "": 6445,
      "": 6446,
      "": 6447,
      "": 6448,
      "": 6449,
      "": 6450,
      "": 6451,
      "": 6452,
      "": 6453,
      "": 6454,
      "": 6455,
      "": 6456,
      "": 6457,
      "": 6458,
      "": 6459,
      "": 6460,
      "": 6461,
      "": 6462,
      "": 6463,
      "": 6464,
      "": 6465,
      "": 6466,
      "": 6467,
      "": 6468,
      "": 6469,
      "": 6470,
      "": 6471,
      "": 6472,
      "": 6473,
      "": 6474,
      "": 6475,
      "": 6476,
      "": 6477,
      "": 6478,
      "": 6479,
      "": 6480,
      "": 6481,
      "": 6482,
      "": 6483,
      "": 6484,
      "": 6485,
      "": 6486,
      "": 6487,
      "": 6488,
      "": 6489,
      "": 6490,
      "": 6491,
      "": 6492,
      "": 6493,
      "": 6494,
      "": 6495,
      "": 6496,
      "": 6497,
      "": 6498,
      "": 6499,
      "": 6500,
      "": 6501,
      "": 6502,
      "": 6503,
      "": 6504,
      "": 6505,
      "": 6506,
      "": 6507,
      "": 6508,
      "︀": 6509,
      "︎": 6510,
      "️": 6511,
      "﻿": 6512,
      "￼": 6513,
      "�": 6514,
      "￿": 6515,
      "𐌲": 6516,
      "𐌹": 6517,
      "𐌺": 6518,
      "𐌿": 6519,
      "𐍃": 6520,
      "𐍄": 6521,
      "𐰺": 6522,
      "𐱃": 6523,
      "𝌆": 6524,
      "🅰": 6525,
      "🅱": 6526,
      "🅴": 6527,
      "🅷": 6528,
      "🅻": 6529,
      "🅼": 6530,
      "🆁": 6531,
      "🆈": 6532,
      "🇦": 6533,
      "🇧": 6534,
      "🇨": 6535,
      "🇩": 6536,
      "🇪": 6537,
      "🇫": 6538,
      "🇬": 6539,
      "🇭": 6540,
      "🇮": 6541,
      "🇯": 6542,
      "🇰": 6543,
      "🇱": 6544,
      "🇲": 6545,
      "🇳": 6546,
      "🇴": 6547,
      "🇵": 6548,
      "🇶": 6549,
      "🇷": 6550,
      "🇸": 6551,
      "🇹": 6552,
      "🇺": 6553,
      "🇼": 6554,
      "🇽": 6555,
      "🇾": 6556,
      "🇿": 6557,
      "🌅": 6558,
      "🌈": 6559,
      "🌊": 6560,
      "🌋": 6561,
      "🌌": 6562,
      "🌍": 6563,
      "🌎": 6564,
      "🌏": 6565,
      "🌐": 6566,
      "🌕": 6567,
      "🌙": 6568,
      "🌞": 6569,
      "🌟": 6570,
      "🌤": 6571,
      "🌧": 6572,
      "🌩": 6573,
      "🌪": 6574,
      "🌲": 6575,
      "🌴": 6576,
      "🌵": 6577,
      "🌷": 6578,
      "🌸": 6579,
      "🌹": 6580,
      "🌺": 6581,
      "🌻": 6582,
      "🌼": 6583,
      "🌽": 6584,
      "🌿": 6585,
      "🍀": 6586,
      "🍁": 6587,
      "🍂": 6588,
      "🍅": 6589,
      "🍊": 6590,
      "🍋": 6591,
      "🍎": 6592,
      "🍏": 6593,
      "🍑": 6594,
      "🍒": 6595,
      "🍓": 6596,
      "🍕": 6597,
      "🍟": 6598,
      "🍠": 6599,
      "🍦": 6600,
      "🍭": 6601,
      "🍰": 6602,
      "🍱": 6603,
      "🍲": 6604,
      "🍴": 6605,
      "🍷": 6606,
      "🍹": 6607,
      "🍺": 6608,
      "🍻": 6609,
      "🍾": 6610,
      "🍿": 6611,
      "🎀": 6612,
      "🎁": 6613,
      "🎂": 6614,
      "🎃": 6615,
      "🎈": 6616,
      "🎉": 6617,
      "🎊": 6618,
      "🎑": 6619,
      "🎓": 6620,
      "🎙": 6621,
      "🎞": 6622,
      "🎤": 6623,
      "🎥": 6624,
      "🎧": 6625,
      "🎨": 6626,
      "🎩": 6627,
      "🎬": 6628,
      "🎭": 6629,
      "🎵": 6630,
      "🎶": 6631,
      "🎷": 6632,
      "🎸": 6633,
      "🏁": 6634,
      "🏃": 6635,
      "🏄": 6636,
      "🏅": 6637,
      "🏆": 6638,
      "🏇": 6639,
      "🏈": 6640,
      "🏉": 6641,
      "🏗": 6642,
      "🏙": 6643,
      "🏝": 6644,
      "🏟": 6645,
      "🏠": 6646,
      "🏡": 6647,
      "🏥": 6648,
      "🏬": 6649,
      "🏳": 6650,
      "🏷": 6651,
      "🏻": 6652,
      "🏼": 6653,
      "🏽": 6654,
      "🏾": 6655,
      "🐈": 6656,
      "🐑": 6657,
      "🐕": 6658,
      "🐘": 6659,
      "🐞": 6660,
      "🐟": 6661,
      "🐡": 6662,
      "🐦": 6663,
      "🐩": 6664,
      "🐮": 6665,
      "🐰": 6666,
      "🐱": 6667,
      "🐴": 6668,
      "🐶": 6669,
      "🐸": 6670,
      "🐺": 6671,
      "🐽": 6672,
      "🐾": 6673,
      "🐿": 6674,
      "👀": 6675,
      "👁": 6676,
      "👄": 6677,
      "👅": 6678,
      "👇": 6679,
      "👈": 6680,
      "👉": 6681,
      "👊": 6682,
      "👋": 6683,
      "👌": 6684,
      "👍": 6685,
      "👎": 6686,
      "👏": 6687,
      "👑": 6688,
      "👚": 6689,
      "👞": 6690,
      "👟": 6691,
      "👠": 6692,
      "👢": 6693,
      "👣": 6694,
      "👤": 6695,
      "👥": 6696,
      "👩": 6697,
      "👪": 6698,
      "👭": 6699,
      "👮": 6700,
      "👯": 6701,
      "👰": 6702,
      "👳": 6703,
      "👿": 6704,
      "💀": 6705,
      "💃": 6706,
      "💅": 6707,
      "💇": 6708,
      "💊": 6709,
      "💋": 6710,
      "💌": 6711,
      "💍": 6712,
      "💎": 6713,
      "💐": 6714,
      "💑": 6715,
      "💓": 6716,
      "💔": 6717,
      "💕": 6718,
      "💖": 6719,
      "💗": 6720,
      "💘": 6721,
      "💙": 6722,
      "💚": 6723,
      "💛": 6724,
      "💜": 6725,
      "💝": 6726,
      "💞": 6727,
      "💟": 6728,
      "💡": 6729,
      "💤": 6730,
      "💥": 6731,
      "💦": 6732,
      "💧": 6733,
      "💪": 6734,
      "💫": 6735,
      "💬": 6736,
      "💯": 6737,
      "💰": 6738,
      "💵": 6739,
      "💶": 6740,
      "💷": 6741,
      "💸": 6742,
      "💺": 6743,
      "💻": 6744,
      "💼": 6745,
      "📅": 6746,
      "📈": 6747,
      "📊": 6748,
      "📌": 6749,
      "📑": 6750,
      "📓": 6751,
      "📕": 6752,
      "📖": 6753,
      "📘": 6754,
      "📙": 6755,
      "📚": 6756,
      "📝": 6757,
      "📡": 6758,
      "📢": 6759,
      "📣": 6760,
      "📥": 6761,
      "📲": 6762,
      "📷": 6763,
      "📸": 6764,
      "📹": 6765,
      "📺": 6766,
      "📿": 6767,
      "🔋": 6768,
      "🔍": 6769,
      "🔎": 6770,
      "🔖": 6771,
      "🔗": 6772,
      "🔘": 6773,
      "🔥": 6774,
      "🔫": 6775,
      "🔴": 6776,
      "🔶": 6777,
      "🔸": 6778,
      "🕆": 6779,
      "🕉": 6780,
      "🕊": 6781,
      "🕯": 6782,
      "🕺": 6783,
      "🖋": 6784,
      "🖕": 6785,
      "🖖": 6786,
      "🖤": 6787,
      "🗐": 6788,
      "🗓": 6789,
      "🗣": 6790,
      "🗨": 6791,
      "🗳": 6792,
      "🗺": 6793,
      "😀": 6794,
      "😁": 6795,
      "😂": 6796,
      "😃": 6797,
      "😄": 6798,
      "😅": 6799,
      "😆": 6800,
      "😇": 6801,
      "😈": 6802,
      "😉": 6803,
      "😊": 6804,
      "😋": 6805,
      "😍": 6806,
      "😎": 6807,
      "😏": 6808,
      "😐": 6809,
      "😒": 6810,
      "😔": 6811,
      "😕": 6812,
      "😖": 6813,
      "😗": 6814,
      "😘": 6815,
      "😙": 6816,
      "😚": 6817,
      "😛": 6818,
      "😜": 6819,
      "😝": 6820,
      "😞": 6821,
      "😠": 6822,
      "😡": 6823,
      "😢": 6824,
      "😣": 6825,
      "😤": 6826,
      "😥": 6827,
      "😦": 6828,
      "😧": 6829,
      "😨": 6830,
      "😪": 6831,
      "😫": 6832,
      "😬": 6833,
      "😭": 6834,
      "😮": 6835,
      "😯": 6836,
      "😱": 6837,
      "😲": 6838,
      "😳": 6839,
      "😴": 6840,
      "😵": 6841,
      "😶": 6842,
      "😷": 6843,
      "😸": 6844,
      "😹": 6845,
      "😻": 6846,
      "😽": 6847,
      "🙀": 6848,
      "🙁": 6849,
      "🙂": 6850,
      "🙃": 6851,
      "🙄": 6852,
      "🙆": 6853,
      "🙈": 6854,
      "🙉": 6855,
      "🙊": 6856,
      "🙋": 6857,
      "🙌": 6858,
      "🙏": 6859,
      "🚀": 6860,
      "🚗": 6861,
      "🚨": 6862,
      "🚴": 6863,
      "🚵": 6864,
      "🚶": 6865,
      "🚽": 6866,
      "🛑": 6867,
      "🛒": 6868,
      "🛫": 6869,
      "🛬": 6870,
      "🛹": 6871,
      "🜚": 6872,
      "🜨": 6873,
      "🤐": 6874,
      "🤑": 6875,
      "🤒": 6876,
      "🤓": 6877,
      "🤔": 6878,
      "🤗": 6879,
      "🤘": 6880,
      "🤙": 6881,
      "🤞": 6882,
      "🤡": 6883,
      "🤣": 6884,
      "🤤": 6885,
      "🤦": 6886,
      "🤨": 6887,
      "🤩": 6888,
      "🤪": 6889,
      "🤬": 6890,
      "🤭": 6891,
      "🤮": 6892,
      "🤯": 6893,
      "🤳": 6894,
      "🤵": 6895,
      "🤷": 6896,
      "🤸": 6897,
      "🤺": 6898,
      "🥀": 6899,
      "🥁": 6900,
      "🥂": 6901,
      "🥃": 6902,
      "🥇": 6903,
      "🥓": 6904,
      "🥗": 6905,
      "🥜": 6906,
      "🥞": 6907,
      "🥥": 6908,
      "🥭": 6909,
      "🥰": 6910,
      "🥳": 6911,
      "🥴": 6912,
      "🥶": 6913,
      "🥺": 6914,
      "🥾": 6915,
      "🦁": 6916,
      "🦄": 6917,
      "🦅": 6918,
      "🦉": 6919,
      "🦊": 6920,
      "🦋": 6921,
      "🦍": 6922,
      "🦎": 6923,
      "🦸": 6924,
      "🧂": 6925,
      "🧐": 6926,
      "🧙": 6927,
      "🧚": 6928,
      "🧡": 6929,
      "🧸": 6930,
      "񋟌": 6931,
      "񍐂": 6932,
      "󰀃": 6933,
      "󰀄": 6934,
      "󰀙": 6935,
      "ie": 6936,
      "er": 6937,
      "an": 6938,
      "en": 6939,
      "in": 6940,
      "die": 6941,
      "el": 6942,
      "aa": 6943,
      "te": 6944,
      "or": 6945,
      "et": 6946,
      "on": 6947,
      "is": 6948,
      "es": 6949,
      "at": 6950,
      "ge": 6951,
      "de": 6952,
      "it": 6953,
      "om": 6954,
      "le": 6955,
      "ing": 6956,
      "van": 6957,
      "as": 6958,
      "al": 6959,
      "aar": 6960,
      "re": 6961,
      "se": 6962,
      "oo": 6963,
      "ik": 6964,
      "ou": 6965,
      "st": 6966,
      "ver": 6967,
      "oe": 6968,
      "ar": 6969,
      "op": 6970,
      "aan": 6971,
      "oor": 6972,
      "der": 6973,
      "we": 6974,
      "ig": 6975,
      "het": 6976,
      "nie": 6977,
      "ur": 6978,
      "he": 6979,
      "be": 6980,
      "and": 6981,
      "ir": 6982,
      "ul": 6983,
      "id": 6984,
      "wat": 6985,
      "ol": 6986,
      "sk": 6987,
      "ag": 6988,
      "il": 6989,
      "ek": 6990,
      "ers": 6991,
      "am": 6992,
      "ro": 6993,
      "ak": 6994,
      "ter": 6995,
      "vir": 6996,
      "to": 6997,
      "met": 6998,
      "ies": 6999,
      "me": 7000,
      "of": 7001,
      "us": 7002,
      "lik": 7003,
      "ke": 7004,
      "uit": 7005,
      "20": 7006,
      "dat": 7007,
      "Die": 7008,
      "ry": 7009,
      "ier": 7010,
      "gr": 7011,
      "ord": 7012,
      "sp": 7013,
      "mo": 7014,
      "ad": 7015,
      "ges": 7016,
      "ons": 7017,
      "dit": 7018,
      "ap": 7019,
      "ne": 7020,
      "ens": 7021,
      "ru": 7022,
      "wer": 7023,
      "word": 7024,
      "kan": 7025,
      "bes": 7026,
      "by": 7027,
      "hul": 7028,
      "ent": 7029,
      "un": 7030,
      "ste": 7031,
      "gel": 7032,
      "ic": 7033,
      "ien": 7034,
      "af": 7035,
      "na": 7036,
      "sy": 7037,
      "aak": 7038,
      "aat": 7039,
      "os": 7040,
      "voor": 7041,
      "ont": 7042,
      "kom": 7043,
      "ra": 7044,
      "onder": 7045,
      "sel": 7046,
      "was": 7047,
      "ch": 7048,
      "jy": 7049,
      "bl": 7050,
      "ook": 7051,
      "ige": 7052,
      "og": 7053,
      "pl": 7054,
      "ve": 7055,
      "201": 7056,
      "heid": 7057,
      "daar": 7058,
      "jou": 7059,
      "ings": 7060,
      "ker": 7061,
      "ite": 7062,
      "ba": 7063,
      "ele": 7064,
      "th": 7065,
      "ed": 7066,
      "ty": 7067,
      "ende": 7068,
      "waar": 7069,
      "my": 7070,
      "im": 7071,
      "the": 7072,
      "00": 7073,
      "vol": 7074,
      "pr": 7075,
      "hulle": 7076,
      "ion": 7077,
      "so": 7078,
      "ber": 7079,
      "aal": 7080,
      "sal": 7081,
      "deur": 7082,
      "ind": 7083,
      "ken": 7084,
      "fr": 7085,
      "pro": 7086,
      "In": 7087,
      "em": 7088,
      "geb": 7089,
      "do": 7090,
      "hier": 7091,
      "for": 7092,
      "ond": 7093,
      "um": 7094,
      "tel": 7095,
      "On": 7096,
      "wy": 7097,
      "ant": 7098,
      "hand": 7099,
      "ly": 7100,
      "oek": 7101,
      "moet": 7102,
      "ger": 7103,
      "ac": 7104,
      "sie": 7105,
      "werk": 7106,
      "een": 7107,
      "uur": 7108,
      "od": 7109,
      "oot": 7110,
      "ander": 7111,
      "ot": 7112,
      "ia": 7113,
      "eer": 7114,
      "maak": 7115,
      "gen": 7116,
      "eld": 7117,
      "hy": 7118,
      "hou": 7119,
      "dag": 7120,
      "sl": 7121,
      "oop": 7122,
      "maar": 7123,
      "toe": 7124,
      "per": 7125,
      "ate": 7126,
      "tr": 7127,
      "men": 7128,
      "iese": 7129,
      "ex": 7130,
      "like": 7131,
      "net": 7132,
      "dr": 7133,
      "ang": 7134,
      "uis": 7135,
      "oos": 7136,
      "uk": 7137,
      "Ek": 7138,
      "man": 7139,
      "oed": 7140,
      "gaan": 7141,
      "ay": 7142,
      "art": 7143,
      "lo": 7144,
      "Dit": 7145,
      "handel": 7146,
      "tyd": 7147,
      "ip": 7148,
      "bel": 7149,
      "tot": 7150,
      "ut": 7151,
      "ink": 7152,
      "19": 7153,
      "ide": 7154,
      "Afr": 7155,
      "oon": 7156,
      "ug": 7157,
      "aam": 7158,
      "kl": 7159,
      "are": 7160,
      "br": 7161,
      "ale": 7162,
      "ank": 7163,
      "eg": 7164,
      "if": 7165,
      "stel": 7166,
      "meer": 7167,
      "hierdie": 7168,
      "hoe": 7169,
      "self": 7170,
      "vr": 7171,
      "pe": 7172,
      "En": 7173,
      "est": 7174,
      "end": 7175,
      "vo": 7176,
      "reg": 7177,
      "10": 7178,
      "ist": 7179,
      "baie": 7180,
      "del": 7181,
      "asie": 7182,
      "Afrik": 7183,
      "wees": 7184,
      "wil": 7185,
      "iet": 7186,
      "mer": 7187,
      "ep": 7188,
      "skap": 7189,
      "kry": 7190,
      "rek": 7191,
      "uid": 7192,
      "bet": 7193,
      "ine": 7194,
      "ood": 7195,
      "all": 7196,
      "ans": 7197,
      "soos": 7198,
      "ruik": 7199,
      "bo": 7200,
      "ks": 7201,
      "wel": 7202,
      "jaar": 7203,
      "ort": 7204,
      "ief": 7205,
      "St": 7206,
      "di": 7207,
      "ho": 7208,
      "aas": 7209,
      "aai": 7210,
      "dien": 7211,
      "gew": 7212,
      "dig": 7213,
      "lig": 7214,
      "ied": 7215,
      "ess": 7216,
      "doen": 7217,
      "mense": 7218,
      "min": 7219,
      "nu": 7220,
      "Gr": 7221,
      "haar": 7222,
      "versk": 7223,
      "Ch": 7224,
      "ab": 7225,
      "groot": 7226,
      "ark": 7227,
      "lek": 7228,
      "teen": 7229,
      "woor": 7230,
      "ster": 7231,
      "val": 7232,
      "ders": 7233,
      "ef": 7234,
      "deel": 7235,
      "yk": 7236,
      "ike": 7237,
      "her": 7238,
      "volg": 7239,
      "gin": 7240,
      "com": 7241,
      "As": 7242,
      "ting": 7243,
      "gebruik": 7244,
      "kr": 7245,
      "An": 7246,
      "iek": 7247,
      "12": 7248,
      "land": 7249,
      "Al": 7250,
      "eks": 7251,
      "aag": 7252,
      "ct": 7253,
      "ool": 7254,
      "weer": 7255,
      "Ons": 7256,
      "wys": 7257,
      "vor": 7258,
      "Ver": 7259,
      "nog": 7260,
      "ard": 7261,
      "ht": 7262,
      "hom": 7263,
      "ko": 7264,
      "wee": 7265,
      "kon": 7266,
      "oof": 7267,
      "mak": 7268,
      "ulle": 7269,
      "gele": 7270,
      "18": 7271,
      "nou": 7272,
      "inge": 7273,
      "ill": 7274,
      "Pr": 7275,
      "jie": 7276,
      "ment": 7277,
      "vl": 7278,
      "ma": 7279,
      "De": 7280,
      "Hy": 7281,
      "aad": 7282,
      "sies": 7283,
      "15": 7284,
      "one": 7285,
      "kel": 7286,
      "eers": 7287,
      "ust": 7288,
      "ië": 7289,
      "yn": 7290,
      "ast": 7291,
      "ow": 7292,
      "200": 7293,
      "tes": 7294,
      "vers": 7295,
      "11": 7296,
      "begin": 7297,
      "wit": 7298,
      "iteit": 7299,
      "du": 7300,
      "bin": 7301,
      "oog": 7302,
      "kle": 7303,
      "pers": 7304,
      "isie": 7305,
      "iv": 7306,
      "sê": 7307,
      "sien": 7308,
      "huis": 7309,
      "ure": 7310,
      "keer": 7311,
      "sen": 7312,
      "hel": 7313,
      "dan": 7314,
      "For": 7315,
      "res": 7316,
      "twee": 7317,
      "Op": 7318,
      "anne": 7319,
      "ere": 7320,
      "saam": 7321,
      "iener": 7322,
      "ore": 7323,
      "ok": 7324,
      "ck": 7325,
      "Re": 7326,
      "Daar": 7327,
      "ce": 7328,
      "lyn": 7329,
      "ooi": 7330,
      "ha": 7331,
      "Jo": 7332,
      "Ge": 7333,
      "God": 7334,
      "gee": 7335,
      "Wat": 7336,
      "fe": 7337,
      "ong": 7338,
      "Me": 7339,
      "14": 7340,
      "ʼn": 7341,
      "ding": 7342,
      "best": 7343,
      "ass": 7344,
      "org": 7345,
      "int": 7346,
      "Mar": 7347,
      "baar": 7348,
      "Le": 7349,
      "staan": 7350,
      "our": 7351,
      "mal": 7352,
      "ER": 7353,
      "goed": 7354,
      "The": 7355,
      "Tiener": 7356,
      "alle": 7357,
      "16": 7358,
      "get": 7359,
      "13": 7360,
      "els": 7361,
      "han": 7362,
      "kam": 7363,
      "ins": 7364,
      "iewe": 7365,
      "17": 7366,
      "AN": 7367,
      "Bl": 7368,
      "ged": 7369,
      "ente": 7370,
      "plaas": 7371,
      "Suid": 7372,
      "koop": 7373,
      "ame": 7374,
      "laat": 7375,
      "oen": 7376,
      "tig": 7377,
      "aars": 7378,
      "orn": 7379,
      "soek": 7380,
      "ation": 7381,
      "aap": 7382,
      "forex": 7383,
      "Br": 7384,
      "30": 7385,
      "eie": 7386,
      "leer": 7387,
      "voer": 7388,
      "Hier": 7389,
      "su": 7390,
      "êr": 7391,
      "aand": 7392,
      "age": 7393,
      "weet": 7394,
      "Ne": 7395,
      "mens": 7396,
      "vind": 7397,
      "ae": 7398,
      "24": 7399,
      "Afrikaan": 7400,
      "atis": 7401,
      "par": 7402,
      "inter": 7403,
      "SA": 7404,
      "Seks": 7405,
      "geh": 7406,
      "ree": 7407,
      "spr": 7408,
      "out": 7409,
      "Vol": 7410,
      "fl": 7411,
      "str": 7412,
      "ud": 7413,
      "ruk": 7414,
      "Maar": 7415,
      "vaar": 7416,
      "kin": 7417,
      "bed": 7418,
      "seker": 7419,
      "ten": 7420,
      "oeg": 7421,
      "dis": 7422,
      "êre": 7423,
      "eds": 7424,
      "ling": 7425,
      "Be": 7426,
      "hede": 7427,
      "bly": 7428,
      "co": 7429,
      "mark": 7430,
      "plek": 7431,
      "ses": 7432,
      "web": 7433,
      "nuwe": 7434,
      "eb": 7435,
      "anneer": 7436,
      "25": 7437,
      "pos": 7438,
      "inn": 7439,
      "tem": 7440,
      "som": 7441,
      "Sy": 7442,
      "weg": 7443,
      "Sp": 7444,
      "ack": 7445,
      "lewe": 7446,
      "ti": 7447,
      "vrou": 7448,
      "oto": 7449,
      "rou": 7450,
      "veel": 7451,
      "des": 7452,
      "elik": 7453,
      "eerste": 7454,
      "oep": 7455,
      "sw": 7456,
      "elke": 7457,
      "sit": 7458,
      "ater": 7459,
      "reek": 7460,
      "eel": 7461,
      "spel": 7462,
      "mis": 7463,
      "tu": 7464,
      "kop": 7465,
      "ideo": 7466,
      "sh": 7467,
      "je": 7468,
      "mid": 7469,
      "êreld": 7470,
      "leg": 7471,
      "kies": 7472,
      "bur": 7473,
      "Forex": 7474,
      "jies": 7475,
      "besk": 7476,
      "ble": 7477,
      "ade": 7478,
      "ww": 7479,
      "mag": 7480,
      "ity": 7481,
      "kun": 7482,
      "ussen": 7483,
      "amp": 7484,
      "Hoe": 7485,
      "ryf": 7486,
      "opsies": 7487,
      "Pro": 7488,
      "este": 7489,
      "la": 7490,
      "geen": 7491,
      "Dis": 7492,
      "Afrika": 7493,
      "AA": 7494,
      "tor": 7495,
      "Van": 7496,
      "qu": 7497,
      "stand": 7498,
      "neem": 7499,
      "sou": 7500,
      "arm": 7501,
      "lang": 7502,
      "gene": 7503,
      "maat": 7504,
      "pol": 7505,
      "oud": 7506,
      "50": 7507,
      "Pl": 7508,
      "ult": 7509,
      "ande": 7510,
      "gemaak": 7511,
      "oord": 7512,
      "Fr": 7513,
      "bied": 7514,
      "vert": 7515,
      "Chr": 7516,
      "ome": 7517,
      "line": 7518,
      "kyk": 7519,
      "Po": 7520,
      "geme": 7521,
      "woord": 7522,
      "ake": 7523,
      "mand": 7524,
      "Ar": 7525,
      "pas": 7526,
      "oort": 7527,
      "paar": 7528,
      "teken": 7529,
      "help": 7530,
      "les": 7531,
      "verl": 7532,
      "gesê": 7533,
      "tussen": 7534,
      "iets": 7535,
      "IN": 7536,
      "ive": 7537,
      "Jy": 7538,
      "sluit": 7539,
      "po": 7540,
      "av": 7541,
      "ob": 7542,
      "Tr": 7543,
      "room": 7544,
      "teg": 7545,
      "ij": 7546,
      "geld": 7547,
      "22": 7548,
      "iew": 7549,
      "vra": 7550,
      "ial": 7551,
      "2019": 7552,
      "Met": 7553,
      "IE": 7554,
      "iseer": 7555,
      "wêreld": 7556,
      "water": 7557,
      "beste": 7558,
      "kinders": 7559,
      "julle": 7560,
      "bu": 7561,
      "El": 7562,
      "pry": 7563,
      "Hierdie": 7564,
      "terug": 7565,
      "iz": 7566,
      "wet": 7567,
      "io": 7568,
      "Se": 7569,
      "My": 7570,
      "want": 7571,
      "oeie": 7572,
      "form": 7573,
      "up": 7574,
      "saak": 7575,
      "igheid": 7576,
      "oem": 7577,
      "ga": 7578,
      "skool": 7579,
      "Aan": 7580,
      "Om": 7581,
      "nat": 7582,
      "ene": 7583,
      "vang": 7584,
      "with": 7585,
      "40": 7586,
      "wik": 7587,
      "oun": 7588,
      "23": 7589,
      "Jan": 7590,
      "wanneer": 7591,
      "gesk": 7592,
      "Ont": 7593,
      "app": 7594,
      "stad": 7595,
      "verb": 7596,
      "By": 7597,
      "sing": 7598,
      "rig": 7599,
      "kw": 7600,
      "week": 7601,
      "wing": 7602,
      "king": 7603,
      "off": 7604,
      "voel": 7605,
      "beeld": 7606,
      "ue": 7607,
      "onde": 7608,
      "besl": 7609,
      "dink": 7610,
      "ets": 7611,
      "gro": 7612,
      "21": 7613,
      "wag": 7614,
      "Maat": 7615,
      "enige": 7616,
      "ese": 7617,
      "ff": 7618,
      "nis": 7619,
      "reken": 7620,
      "sonder": 7621,
      "No": 7622,
      "ary": 7623,
      "lief": 7624,
      "verh": 7625,
      "red": 7626,
      "28": 7627,
      "dié": 7628,
      "beur": 7629,
      "Ad": 7630,
      "EN": 7631,
      "belan": 7632,
      "27": 7633,
      "use": 7634,
      "gl": 7635,
      "iel": 7636,
      "ian": 7637,
      "26": 7638,
      "bare": 7639,
      "Vir": 7640,
      "08": 7641,
      "grond": 7642,
      "We": 7643,
      "vre": 7644,
      "ts": 7645,
      "bele": 7646,
      "Un": 7647,
      "ieke": 7648,
      "duk": 7649,
      "000": 7650,
      "He": 7651,
      "olog": 7652,
      "beer": 7653,
      "sig": 7654,
      "rug": 7655,
      "vel": 7656,
      "ante": 7657,
      "fin": 7658,
      "hoof": 7659,
      "staat": 7660,
      "Ma": 7661,
      "tp": 7662,
      "odig": 7663,
      "ple": 7664,
      "Bo": 7665,
      "Hulle": 7666,
      "2018": 7667,
      "enskap": 7668,
      "Ro": 7669,
      "aanlyn": 7670,
      "Is": 7671,
      "loop": 7672,
      "spes": 7673,
      "inde": 7674,
      "ub": 7675,
      "ice": 7676,
      "volgende": 7677,
      "kamer": 7678,
      "boek": 7679,
      "tre": 7680,
      "glo": 7681,
      "ven": 7682,
      "raad": 7683,
      "dus": 7684,
      "belangr": 7685,
      "that": 7686,
      "vry": 7687,
      "iding": 7688,
      "http": 7689,
      "bou": 7690,
      "2017": 7691,
      "persoon": 7692,
      "kant": 7693,
      "ny": 7694,
      "gratis": 7695,
      "ubl": 7696,
      "Na": 7697,
      "verander": 7698,
      "trek": 7699,
      "Am": 7700,
      "teer": 7701,
      "goeie": 7702,
      "wyl": 7703,
      "ms": 7704,
      "asion": 7705,
      "mil": 7706,
      "asies": 7707,
      "99": 7708,
      "stra": 7709,
      "Dr": 7710,
      "Groot": 7711,
      "alk": 7712,
      "vrien": 7713,
      "klein": 7714,
      "burg": 7715,
      "middel": 7716,
      "beter": 7717,
      "moe": 7718,
      "Ba": 7719,
      "seks": 7720,
      "Th": 7721,
      "ye": 7722,
      "unt": 7723,
      "ooit": 7724,
      "So": 7725,
      "dra": 7726,
      "ser": 7727,
      "agter": 7728,
      "almal": 7729,
      "alles": 7730,
      "omdat": 7731,
      "rol": 7732,
      "wen": 7733,
      "ane": 7734,
      "eng": 7735,
      "span": 7736,
      "vat": 7737,
      "ise": 7738,
      "Sk": 7739,
      "Christ": 7740,
      "dom": 7741,
      "gram": 7742,
      "kont": 7743,
      "no": 7744,
      "los": 7745,
      "lede": 7746,
      "29": 7747,
      "kend": 7748,
      "drie": 7749,
      "gestel": 7750,
      "soe": 7751,
      "Jes": 7752,
      "produk": 7753,
      "oodie": 7754,
      "Her": 7755,
      "heel": 7756,
      "moont": 7757,
      "tige": 7758,
      "wh": 7759,
      "wikkel": 7760,
      "egter": 7761,
      "Sh": 7762,
      "EK": 7763,
      "selfs": 7764,
      "oei": 7765,
      "video": 7766,
      "gest": 7767,
      "ST": 7768,
      "pad": 7769,
      "ah": 7770,
      "Afrikaanse": 7771,
      "au": 7772,
      "vas": 7773,
      "heer": 7774,
      "den": 7775,
      "07": 7776,
      "ors": 7777,
      "arie": 7778,
      "krag": 7779,
      "ars": 7780,
      "dood": 7781,
      "you": 7782,
      "doel": 7783,
      "Kaap": 7784,
      "ton": 7785,
      "mel": 7786,
      "koms": 7787,
      "ligting": 7788,
      "aange": 7789,
      "enig": 7790,
      "let": 7791,
      "2016": 7792,
      "lop": 7793,
      "slag": 7794,
      "LE": 7795,
      "iemand": 7796,
      "altyd": 7797,
      "volle": 7798,
      "pres": 7799,
      "akel": 7800,
      "stelsel": 7801,
      "amil": 7802,
      "wor": 7803,
      "gesien": 7804,
      "dae": 7805,
      "hal": 7806,
      "ell": 7807,
      "diens": 7808,
      "Com": 7809,
      "binêre": 7810,
      "prys": 7811,
      "ee": 7812,
      "Nu": 7813,
      "ys": 7814,
      "ina": 7815,
      "beskik": 7816,
      "ern": 7817,
      "lees": 7818,
      "Amer": 7819,
      "its": 7820,
      "ta": 7821,
      "nodig": 7822,
      "ters": 7823,
      "iale": 7824,
      "hart": 7825,
      "ër": 7826,
      "tal": 7827,
      "Hoodie": 7828,
      "dige": 7829,
      "vorm": 7830,
      "webwer": 7831,
      "geneem": 7832,
      "wens": 7833,
      "bs": 7834,
      "ase": 7835,
      "bestuur": 7836,
      "ich": 7837,
      "kort": 7838,
      "che": 7839,
      "geluk": 7840,
      "kryf": 7841,
      "ontwikkel": 7842,
      "woorde": 7843,
      "60": 7844,
      "AR": 7845,
      "sex": 7846,
      "foto": 7847,
      "ben": 7848,
      "ille": 7849,
      "sleg": 7850,
      "orie": 7851,
      "kery": 7852,
      "aanse": 7853,
      "bre": 7854,
      "berg": 7855,
      "Jesus": 7856,
      "ël": 7857,
      "makel": 7858,
      "agte": 7859,
      "Af": 7860,
      "air": 7861,
      "Afrikaans": 7862,
      "raak": 7863,
      "druk": 7864,
      "ning": 7865,
      "isies": 7866,
      "praat": 7867,
      "mek": 7868,
      "iks": 7869,
      "ivers": 7870,
      "Ju": 7871,
      "duid": 7872,
      "gelede": 7873,
      "wie": 7874,
      "proble": 7875,
      "edia": 7876,
      "onk": 7877,
      "Porn": 7878,
      "Mo": 7879,
      "erg": 7880,
      "gere": 7881,
      "nes": 7882,
      "maklik": 7883,
      "diesel": 7884,
      "ensies": 7885,
      "ions": 7886,
      "old": 7887,
      "minder": 7888,
      "hê": 7889,
      "Jul": 7890,
      "terwyl": 7891,
      "asionale": 7892,
      "plan": 7893,
      "ware": 7894,
      "cl": 7895,
      "sty": 7896,
      "vier": 7897,
      "31": 7898,
      "beteken": 7899,
      "med": 7900,
      "con": 7901,
      "ile": 7902,
      "aandele": 7903,
      "orp": 7904,
      "soekery": 7905,
      "01": 7906,
      "mekaar": 7907,
      "speel": 7908,
      "moontlik": 7909,
      "inligting": 7910,
      "wasse": 7911,
      "ids": 7912,
      "EL": 7913,
      "nem": 7914,
      "stem": 7915,
      "vlak": 7916,
      "Ho": 7917,
      "reeds": 7918,
      "gehad": 7919,
      "kie": 7920,
      "skr": 7921,
      "view": 7922,
      "vis": 7923,
      "oll": 7924,
      "oel": 7925,
      "Ontmoet": 7926,
      "Engel": 7927,
      "ib": 7928,
      "ach": 7929,
      "Kl": 7930,
      "dek": 7931,
      "selfde": 7932,
      "gedoen": 7933,
      "ON": 7934,
      "naam": 7935,
      "steun": 7936,
      "kos": 7937,
      "100": 7938,
      "ames": 7939,
      "werp": 7940,
      "Co": 7941,
      "opsie": 7942,
      "OR": 7943,
      "mun": 7944,
      "ester": 7945,
      "gas": 7946,
      "ld": 7947,
      "imp": 7948,
      "ering": 7949,
      "erk": 7950,
      "gang": 7951,
      "ader": 7952,
      "ath": 7953,
      "Net": 7954,
      "hoog": 7955,
      "ous": 7956,
      "daardie": 7957,
      "ick": 7958,
      "Sep": 7959,
      "ail": 7960,
      "dinge": 7961,
      "35": 7962,
      "wis": 7963,
      "from": 7964,
      "Aug": 7965,
      "za": 7966,
      "probeer": 7967,
      "05": 7968,
      "ryk": 7969,
      "bekend": 7970,
      "skryf": 7971,
      "Dies": 7972,
      "mee": 7973,
      "ium": 7974,
      "ner": 7975,
      "Di": 7976,
      "bas": 7977,
      "natuur": 7978,
      "45": 7979,
      "rok": 7980,
      "Dan": 7981,
      "dieselfde": 7982,
      "duidelik": 7983,
      "maan": 7984,
      "ted": 7985,
      "bere": 7986,
      "ligg": 7987,
      "stig": 7988,
      "fer": 7989,
      "Men": 7990,
      "lekker": 7991,
      "son": 7992,
      "maatskap": 7993,
      "inst": 7994,
      "delik": 7995,
      "akt": 7996,
      "mat": 7997,
      "mus": 7998,
      "Diesel": 7999,
      "seer": 8000,
      "kind": 8001,
      "hulp": 8002,
      "ading": 8003,
      "06": 8004,
      "oue": 8005,
      "stuk": 8006,
      "steeds": 8007,
      "ris": 8008,
      "ight": 8009,
      "anders": 8010,
      "wonder": 8011,
      "able": 8012,
      "belangrik": 8013,
      "ES": 8014,
      "ateur": 8015,
      "blad": 8016,
      "hele": 8017,
      "stu": 8018,
      "09": 8019,
      "33": 8020,
      "lank": 8021,
      "lyk": 8022,
      "Cl": 8023,
      "Pers": 8024,
      "Johan": 8025,
      "Des": 8026,
      "Vrou": 8027,
      "kerk": 8028,
      "Kom": 8029,
      "www": 8030,
      "beh": 8031,
      "ister": 8032,
      "New": 8033,
      "aart": 8034,
      "nooit": 8035,
      "ident": 8036,
      "veil": 8037,
      "Te": 8038,
      "tog": 8039,
      "Sch": 8040,
      "oonlik": 8041,
      "daarvan": 8042,
      "houd": 8043,
      "aring": 8044,
      "geval": 8045,
      "Or": 8046,
      "veral": 8047,
      "wn": 8048,
      "Foto": 8049,
      "enis": 8050,
      "lei": 8051,
      "gebeur": 8052,
      "vest": 8053,
      "onom": 8054,
      "skep": 8055,
      "graf": 8056,
      "sc": 8057,
      "waarde": 8058,
      "Apr": 8059,
      "ph": 8060,
      "taal": 8061,
      "ish": 8062,
      "Amerik": 8063,
      "eien": 8064,
      "fun": 8065,
      "moes": 8066,
      "motor": 8067,
      "py": 8068,
      "nag": 8069,
      "fek": 8070,
      "bal": 8071,
      "wes": 8072,
      "Ste": 8073,
      "ja": 8074,
      "To": 8075,
      "binne": 8076,
      "lag": 8077,
      "open": 8078,
      "ope": 8079,
      "pa": 8080,
      "ideos": 8081,
      "Maatsoekery": 8082,
      "kar": 8083,
      "IS": 8084,
      "Vry": 8085,
      "famil": 8086,
      "Afl": 8087,
      "Volg": 8088,
      "oeke": 8089,
      "dik": 8090,
      "vy": 8091,
      "Aflaai": 8092,
      "tober": 8093,
      "not": 8094,
      "sodat": 8095,
      "illende": 8096,
      "vertel": 8097,
      "AT": 8098,
      "betaal": 8099,
      "Here": 8100,
      "hu": 8101,
      "wa": 8102,
      "urs": 8103,
      "gevolg": 8104,
      "2015": 8105,
      "this": 8106,
      "erv": 8107,
      "bek": 8108,
      "80": 8109,
      "manier": 8110,
      "Aanlyn": 8111,
      "stry": 8112,
      "suk": 8113,
      "ankie": 8114,
      "perk": 8115,
      "dalk": 8116,
      "gekom": 8117,
      "ensie": 8118,
      "tra": 8119,
      "Baie": 8120,
      "US": 8121,
      "mber": 8122,
      "Bes": 8123,
      "vandag": 8124,
      "ute": 8125,
      "bestaan": 8126,
      "36": 8127,
      "vinn": 8128,
      "rak": 8129,
      "gelyk": 8130,
      "ring": 8131,
      "drag": 8132,
      "Sw": 8133,
      "ske": 8134,
      "day": 8135,
      "uite": 8136,
      "sterk": 8137,
      "groep": 8138,
      "geloof": 8139,
      "skry": 8140,
      "Een": 8141,
      "2014": 8142,
      "porn": 8143,
      "fil": 8144,
      "besluit": 8145,
      "kn": 8146,
      "37": 8147,
      "04": 8148,
      "ionele": 8149,
      "Man": 8150,
      "len": 8151,
      "beskikbaar": 8152,
      "UR": 8153,
      "mas": 8154,
      "2013": 8155,
      "verskillende": 8156,
      "wou": 8157,
      "online": 8158,
      "Gratis": 8159,
      "webwerf": 8160,
      "stelling": 8161,
      "leiding": 8162,
      "meeste": 8163,
      "Car": 8164,
      "artik": 8165,
      "pel": 8166,
      "regte": 8167,
      "34": 8168,
      "geleent": 8169,
      "chat": 8170,
      "Pa": 8171,
      "gebied": 8172,
      "Hand": 8173,
      "ET": 8174,
      "spraak": 8175,
      "ull": 8176,
      "ietjie": 8177,
      "stap": 8178,
      "tegie": 8179,
      "aaste": 8180,
      "ica": 8181,
      "jare": 8182,
      "leef": 8183,
      "Nie": 8184,
      "milj": 8185,
      "asse": 8186,
      "199": 8187,
      "log": 8188,
      "woon": 8189,
      "toon": 8190,
      "verkoop": 8191,
      "Je": 8192,
      "hard": 8193,
      "iers": 8194,
      "bos": 8195,
      "tydens": 8196,
      "brand": 8197,
      "voorbeeld": 8198,
      "02": 8199,
      "Feb": 8200,
      "mar": 8201,
      "elf": 8202,
      "oef": 8203,
      "mon": 8204,
      "punt": 8205,
      "likheid": 8206,
      "ontvang": 8207,
      "La": 8208,
      "bring": 8209,
      "wels": 8210,
      "August": 8211,
      "oom": 8212,
      "cam": 8213,
      "gg": 8214,
      "kap": 8215,
      "bak": 8216,
      "program": 8217,
      "veld": 8218,
      "seun": 8219,
      "ember": 8220,
      "Video": 8221,
      "Amateur": 8222,
      "stre": 8223,
      "own": 8224,
      "nasionale": 8225,
      "voort": 8226,
      "Sou": 8227,
      "38": 8228,
      "ories": 8229,
      "39": 8230,
      "als": 8231,
      "iste": 8232,
      "Online": 8233,
      "ange": 8234,
      "jek": 8235,
      "rond": 8236,
      "verder": 8237,
      "pan": 8238,
      "Eur": 8239,
      "2020": 8240,
      "Volwasse": 8241,
      "tember": 8242,
      "Kle": 8243,
      "sek": 8244,
      "niks": 8245,
      "cr": 8246,
      "sn": 8247,
      "plat": 8248,
      "sted": 8249,
      "sa": 8250,
      "ondersteun": 8251,
      "prof": 8252,
      "weeg": 8253,
      "liefde": 8254,
      "mooi": 8255,
      "waarsk": 8256,
      "telike": 8257,
      "kor": 8258,
      "April": 8259,
      "onge": 8260,
      "rum": 8261,
      "uitel": 8262,
      "vember": 8263,
      "2012": 8264,
      "ire": 8265,
      "Voor": 8266,
      "reger": 8267,
      "AL": 8268,
      "enheid": 8269,
      "bank": 8270,
      "lê": 8271,
      "48": 8272,
      "aard": 8273,
      "Janu": 8274,
      "gesp": 8275,
      "myn": 8276,
      "Sl": 8277,
      "Su": 8278,
      "vanaf": 8279,
      "bietjie": 8280,
      "Nat": 8281,
      "leu": 8282,
      "slegs": 8283,
      "cont": 8284,
      "pak": 8285,
      "dele": 8286,
      "September": 8287,
      "rekening": 8288,
      "slaap": 8289,
      "Het": 8290,
      "mos": 8291,
      "ace": 8292,
      "bot": 8293,
      "gewing": 8294,
      "bron": 8295,
      "isme": 8296,
      "Toe": 8297,
      "pie": 8298,
      "gemeenskap": 8299,
      "sko": 8300,
      "can": 8301,
      "top": 8302,
      "46": 8303,
      "bew": 8304,
      "ateg": 8305,
      "don": 8306,
      "veer": 8307,
      "way": 8308,
      "polisie": 8309,
      "IT": 8310,
      "polit": 8311,
      "buite": 8312,
      "voed": 8313,
      "November": 8314,
      "Ter": 8315,
      "later": 8316,
      "Kan": 8317,
      "moed": 8318,
      "har": 8319,
      "organ": 8320,
      "kellop": 8321,
      "eet": 8322,
      "igh": 8323,
      "Inter": 8324,
      "langs": 8325,
      "bad": 8326,
      "stud": 8327,
      "47": 8328,
      "Wh": 8329,
      "ical": 8330,
      "lings": 8331,
      "ler": 8332,
      "49": 8333,
      "Ges": 8334,
      "Ex": 8335,
      "eken": 8336,
      "verstaan": 8337,
      "sin": 8338,
      "anger": 8339,
      "vaardig": 8340,
      "ual": 8341,
      "aksie": 8342,
      "Afrikan": 8343,
      "mige": 8344,
      "strategie": 8345,
      "ologie": 8346,
      "Gen": 8347,
      "hoef": 8348,
      "gegee": 8349,
      "ekonom": 8350,
      "ustr": 8351,
      "vraag": 8352,
      "nuus": 8353,
      "go": 8354,
      "03": 8355,
      "posit": 8356,
      "verskeie": 8357,
      "AM": 8358,
      "jong": 8359,
      "publ": 8360,
      "Uit": 8361,
      "houding": 8362,
      "merk": 8363,
      "voorraad": 8364,
      "Waar": 8365,
      "bep": 8366,
      "genoeg": 8367,
      "ain": 8368,
      "voeg": 8369,
      "Wes": 8370,
      "besoek": 8371,
      "kol": 8372,
      "tjie": 8373,
      "kig": 8374,
      "nadat": 8375,
      "vestig": 8376,
      "verwag": 8377,
      "ds": 8378,
      "Bybel": 8379,
      "55": 8380,
      "Home": 8381,
      "Bel": 8382,
      "Hou": 8383,
      "einde": 8384,
      "moeil": 8385,
      "Fl": 8386,
      "onte": 8387,
      "Pret": 8388,
      "Par": 8389,
      "Bin": 8390,
      "vertensies": 8391,
      "iaal": 8392,
      "Tra": 8393,
      "bro": 8394,
      "sch": 8395,
      "CD": 8396,
      "Univers": 8397,
      "Ger": 8398,
      "spre": 8399,
      "pre": 8400,
      "vak": 8401,
      "name": 8402,
      "ri": 8403,
      "Stel": 8404,
      "will": 8405,
      "Ph": 8406,
      "pet": 8407,
      "vroue": 8408,
      "skoon": 8409,
      "gend": 8410,
      "olie": 8411,
      "party": 8412,
      "OO": 8413,
      "maande": 8414,
      "ator": 8415,
      "groei": 8416,
      "your": 8417,
      "besig": 8418,
      "iko": 8419,
      "ther": 8420,
      "Ke": 8421,
      "hoop": 8422,
      "iteite": 8423,
      "dert": 8424,
      "ette": 8425,
      "ANC": 8426,
      "Res": 8427,
      "tweede": 8428,
      "enk": 8429,
      "cc": 8430,
      "Videos": 8431,
      "ën": 8432,
      "geskied": 8433,
      "have": 8434,
      "gesl": 8435,
      "dienste": 8436,
      "volgens": 8437,
      "dorp": 8438,
      "km": 8439,
      "Lo": 8440,
      "swart": 8441,
      "vinnig": 8442,
      "78": 8443,
      "RE": 8444,
      "Hom": 8445,
      "AS": 8446,
      "blik": 8447,
      "tip": 8448,
      "iële": 8449,
      "vi": 8450,
      "geword": 8451,
      "rel": 8452,
      "Pretor": 8453,
      "sak": 8454,
      "Soek": 8455,
      "eenv": 8456,
      "spesif": 8457,
      "ouers": 8458,
      "beheer": 8459,
      "ID": 8460,
      "tuig": 8461,
      "2011": 8462,
      "hof": 8463,
      "cy": 8464,
      "32": 8465,
      "Ok": 8466,
      "Posted": 8467,
      "sukses": 8468,
      "Febru": 8469,
      "hoor": 8470,
      "Jobs": 8471,
      "nood": 8472,
      "atiese": 8473,
      "AAE": 8474,
      "familie": 8475,
      "Onder": 8476,
      "belegg": 8477,
      "ming": 8478,
      "South": 8479,
      "rus": 8480,
      "vul": 8481,
      "see": 8482,
      "Tag": 8483,
      "wed": 8484,
      "skappe": 8485,
      "Kar": 8486,
      "wink": 8487,
      "skul": 8488,
      "lewens": 8489,
      "kennis": 8490,
      "Les": 8491,
      "2009": 8492,
      "dies": 8493,
      "ref": 8494,
      "ren": 8495,
      "ated": 8496,
      "fees": 8497,
      "Ou": 8498,
      "dering": 8499,
      "dikwels": 8500,
      "ction": 8501,
      "play": 8502,
      "aliteit": 8503,
      "xx": 8504,
      "here": 8505,
      "aandag": 8506,
      "artikel": 8507,
      "vertr": 8508,
      "ory": 8509,
      "eens": 8510,
      "iën": 8511,
      "stryd": 8512,
      "dok": 8513,
      "rede": 8514,
      "antwoord": 8515,
      "Enkellop": 8516,
      "Fran": 8517,
      "regering": 8518,
      "laaste": 8519,
      "Jap": 8520,
      "rit": 8521,
      "stige": 8522,
      "https": 8523,
      "mit": 8524,
      "miljoen": 8525,
      "low": 8526,
      "iër": 8527,
      "agtige": 8528,
      "pek": 8529,
      "Bu": 8530,
      "site": 8531,
      "fo": 8532,
      "Bar": 8533,
      "Deur": 8534,
      "Er": 8535,
      "li": 8536,
      "lewer": 8537,
      "endes": 8538,
      "dam": 8539,
      "wissel": 8540,
      "asting": 8541,
      "uitge": 8542,
      "grootste": 8543,
      "Lees": 8544,
      "delike": 8545,
      "media": 8546,
      "Black": 8547,
      "mm": 8548,
      "mans": 8549,
      "ná": 8550,
      "din": 8551,
      "44": 8552,
      "ING": 8553,
      "sent": 8554,
      "Duit": 8555,
      "orm": 8556,
      "Wanneer": 8557,
      "naby": 8558,
      "verskaf": 8559,
      "Mat": 8560,
      "oper": 8561,
      "Sal": 8562,
      "75": 8563,
      "ix": 8564,
      "kaart": 8565,
      "verseker": 8566,
      "ondersoek": 8567,
      "Volgens": 8568,
      "2008": 8569,
      "pat": 8570,
      "Sc": 8571,
      "Top": 8572,
      "Engels": 8573,
      "siek": 8574,
      "sels": 8575,
      "daag": 8576,
      "liggaam": 8577,
      "Jou": 8578,
      "kleur": 8579,
      "data": 8580,
      "soort": 8581,
      "Bro": 8582,
      "kamp": 8583,
      "wyn": 8584,
      "cial": 8585,
      "makelaars": 8586,
      "ino": 8587,
      "aanvaar": 8588,
      "tion": 8589,
      "andse": 8590,
      "fok": 8591,
      "And": 8592,
      "gehou": 8593,
      "lu": 8594,
      "2010": 8595,
      "ape": 8596,
      "reat": 8597,
      "toes": 8598,
      "Johannes": 8599,
      "Media": 8600,
      "bepaal": 8601,
      "Brit": 8602,
      "Mei": 8603,
      "amb": 8604,
      "Col": 8605,
      "Som": 8606,
      "Wil": 8607,
      "gees": 8608,
      "ama": 8609,
      "uma": 8610,
      "Maart": 8611,
      "reeks": 8612,
      "over": 8613,
      "Junie": 8614,
      "geniet": 8615,
      "reis": 8616,
      "warm": 8617,
      "uister": 8618,
      "jp": 8619,
      "wo": 8620,
      "Amerikaanse": 8621,
      "Ty": 8622,
      "verloor": 8623,
      "gesond": 8624,
      "klaar": 8625,
      "handelaars": 8626,
      "ash": 8627,
      "koers": 8628,
      "very": 8629,
      "Meisie": 8630,
      "haal": 8631,
      "da": 8632,
      "Of": 8633,
      "musiek": 8634,
      "hn": 8635,
      "sagte": 8636,
      "vyf": 8637,
      "vin": 8638,
      "navor": 8639,
      "oete": 8640,
      "Trading": 8641,
      "bok": 8642,
      "nr": 8643,
      "Januarie": 8644,
      "Kon": 8645,
      "proses": 8646,
      "boeke": 8647,
      "tro": 8648,
      "aling": 8649,
      "ka": 8650,
      "draai": 8651,
      "jo": 8652,
      "95": 8653,
      "laai": 8654,
      "gelukkig": 8655,
      "ics": 8656,
      "asook": 8657,
      "leutel": 8658,
      "vloed": 8659,
      "dog": 8660,
      "belang": 8661,
      "Str": 8662,
      "vriende": 8663,
      "koste": 8664,
      "iere": 8665,
      "verlede": 8666,
      "Swart": 8667,
      "pot": 8668,
      "ley": 8669,
      "kru": 8670,
      "eerder": 8671,
      "gun": 8672,
      "skrif": 8673,
      "dui": 8674,
      "gereg": 8675,
      "Reg": 8676,
      "Har": 8677,
      "ign": 8678,
      "gevind": 8679,
      "SE": 8680,
      "tit": 8681,
      "genoem": 8682,
      "more": 8683,
      "oorsaak": 8684,
      "eter": 8685,
      "betrok": 8686,
      "hout": 8687,
      "pass": 8688,
      "besker": 8689,
      "sim": 8690,
      "sos": 8691,
      "70": 8692,
      "stof": 8693,
      "ca": 8694,
      "aarde": 8695,
      "Oktober": 8696,
      "inges": 8697,
      "90": 8698,
      "onderwys": 8699,
      "Ap": 8700,
      "Spe": 8701,
      "si": 8702,
      "Meer": 8703,
      "deling": 8704,
      "lug": 8705,
      "hol": 8706,
      "gebou": 8707,
      "pm": 8708,
      "lit": 8709,
      "Ja": 8710,
      "bedryf": 8711,
      "pd": 8712,
      "eis": 8713,
      "geskiedenis": 8714,
      "Julie": 8715,
      "verkeer": 8716,
      "Art": 8717,
      "waarin": 8718,
      "skakel": 8719,
      "sol": 8720,
      "geskryf": 8721,
      "moeilik": 8722,
      "ontmoet": 8723,
      "probleem": 8724,
      "gekry": 8725,
      "aaf": 8726,
      "Jac": 8727,
      "woordig": 8728,
      "verskyn": 8729,
      "besp": 8730,
      "bood": 8731,
      "ari": 8732,
      "tim": 8733,
      "amel": 8734,
      "intlik": 8735,
      "ban": 8736,
      "gemen": 8737,
      "verspre": 8738,
      "jpg": 8739,
      "88": 8740,
      "65": 8741,
      "new": 8742,
      "ansie": 8743,
      "port": 8744,
      "Dec": 8745,
      "GE": 8746,
      "verwys": 8747,
      "ments": 8748,
      "DA": 8749,
      "gevoel": 8750,
      "bi": 8751,
      "Christus": 8752,
      "tuis": 8753,
      "spe": 8754,
      "ram": 8755,
      "werking": 8756,
      "Meisies": 8757,
      "ollar": 8758,
      "ku": 8759,
      "Air": 8760,
      "gawe": 8761,
      "teenwoordig": 8762,
      "gat": 8763,
      "hoë": 8764,
      "Bor": 8765,
      "maatskappy": 8766,
      "oefen": 8767,
      "makelaar": 8768,
      "Augustus": 8769,
      "ime": 8770,
      "Oor": 8771,
      "has": 8772,
      "wind": 8773,
      "Wit": 8774,
      "ze": 8775,
      "Lu": 8776,
      "mod": 8777,
      "Pretoria": 8778,
      "ham": 8779,
      "Min": 8780,
      "DE": 8781,
      "Mer": 8782,
      "sport": 8783,
      "sake": 8784,
      "Nou": 8785,
      "likse": 8786,
      "projek": 8787,
      "ruim": 8788,
      "oneel": 8789,
      "PE": 8790,
      "produ": 8791,
      "ping": 8792,
      "ense": 8793,
      "pun": 8794,
      "set": 8795,
      "handeling": 8796,
      "priv": 8797,
      "hang": 8798,
      "toer": 8799,
      "reer": 8800,
      "ode": 8801,
      "geleentheid": 8802,
      "buis": 8803,
      "sten": 8804,
      "jar": 8805,
      "stil": 8806,
      "stuur": 8807,
      "Paul": 8808,
      "mees": 8809,
      "kat": 8810,
      "afgel": 8811,
      "hoeveel": 8812,
      "bor": 8813,
      "model": 8814,
      "66": 8815,
      "omen": 8816,
      "DIE": 8817,
      "elde": 8818,
      "arch": 8819,
      "ebook": 8820,
      "kundige": 8821,
      "komste": 8822,
      "bruik": 8823,
      "verskil": 8824,
      "Con": 8825,
      "trans": 8826,
      "Sa": 8827,
      "gehoor": 8828,
      "ouer": 8829,
      "Advertensies": 8830,
      "how": 8831,
      "direk": 8832,
      "daarop": 8833,
      "effek": 8834,
      "lie": 8835,
      "belasting": 8836,
      "omgewing": 8837,
      "buitel": 8838,
      "won": 8839,
      "finans": 8840,
      "ros": 8841,
      "itaal": 8842,
      "Nuus": 8843,
      "View": 8844,
      "war": 8845,
      "keur": 8846,
      "Pe": 8847,
      "ontwerp": 8848,
      "tree": 8849,
      "AC": 8850,
      "tans": 8851,
      "RO": 8852,
      "graag": 8853,
      "plant": 8854,
      "Pre": 8855,
      "diese": 8856,
      "waarskyn": 8857,
      "rie": 8858,
      "oë": 8859,
      "fond": 8860,
      "59": 8861,
      "act": 8862,
      "produkte": 8863,
      "Hel": 8864,
      "blog": 8865,
      "Neder": 8866,
      "god": 8867,
      "Desember": 8868,
      "eintlik": 8869,
      "gemeen": 8870,
      "Wor": 8871,
      "ures": 8872,
      "bert": 8873,
      "Wel": 8874,
      "groter": 8875,
      "risiko": 8876,
      "klas": 8877,
      "moord": 8878,
      "Klein": 8879,
      "maand": 8880,
      "regtig": 8881,
      "kers": 8882,
      "inder": 8883,
      "ontein": 8884,
      "lys": 8885,
      "Hol": 8886,
      "kult": 8887,
      "42": 8888,
      "rand": 8889,
      "mentaar": 8890,
      "ivier": 8891,
      "bloed": 8892,
      "ontwikkeling": 8893,
      "dating": 8894,
      "wins": 8895,
      "derde": 8896,
      "Hen": 8897,
      "Soos": 8898,
      "Web": 8899,
      "bar": 8900,
      "lande": 8901,
      "insluit": 8902,
      "volk": 8903,
      "bereik": 8904,
      "heids": 8905,
      "Ber": 8906,
      "TV": 8907,
      "tien": 8908,
      "tele": 8909,
      "Tu": 8910,
      "soms": 8911,
      "kontrak": 8912,
      "heen": 8913,
      "teur": 8914,
      "wend": 8915,
      "oorte": 8916,
      "hoewel": 8917,
      "bers": 8918,
      "breek": 8919,
      "Noord": 8920,
      "Ak": 8921,
      "oepe": 8922,
      "uta": 8923,
      "termyn": 8924,
      "besigheid": 8925,
      "58": 8926,
      "daad": 8927,
      "ryp": 8928,
      "Pol": 8929,
      "Last": 8930,
      "bru": 8931,
      "Februarie": 8932,
      "onie": 8933,
      "56": 8934,
      "but": 8935,
      "Lou": 8936,
      "reël": 8937,
      "Europ": 8938,
      "plekke": 8939,
      "kuns": 8940,
      "57": 8941,
      "Per": 8942,
      "oggend": 8943,
      "Gre": 8944,
      "sekere": 8945,
      "Du": 8946,
      "Chris": 8947,
      "ius": 8948,
      "43": 8949,
      "hem": 8950,
      "Gu": 8951,
      "ml": 8952,
      "voordat": 8953,
      "been": 8954,
      "198": 8955,
      "Rus": 8956,
      "May": 8957,
      "ican": 8958,
      "verkies": 8959,
      "beskou": 8960,
      "Kr": 8961,
      "elike": 8962,
      "verge": 8963,
      "col": 8964,
      "gewoonlik": 8965,
      "teks": 8966,
      "hande": 8967,
      "IC": 8968,
      "rad": 8969,
      "pryse": 8970,
      "gener": 8971,
      "duur": 8972,
      "Fac": 8973,
      "arg": 8974,
      "Nike": 8975,
      "sker": 8976,
      "aut": 8977,
      "free": 8978,
      "ound": 8979,
      "Mag": 8980,
      "ïn": 8981,
      "ivid": 8982,
      "sul": 8983,
      "betrokke": 8984,
      "TE": 8985,
      "Universiteit": 8986,
      "thing": 8987,
      "beslis": 8988,
      "sommige": 8989,
      "Fil": 8990,
      "oorspr": 8991,
      "This": 8992,
      "ann": 8993,
      "irt": 8994,
      "urende": 8995,
      "diep": 8996,
      "verhouding": 8997,
      "oorlog": 8998,
      "handels": 8999,
      "You": 9000,
      "Dat": 9001,
      "gerus": 9002,
      "feit": 9003,
      "probleme": 9004,
      "gedag": 9005,
      "diere": 9006,
      "ople": 9007,
      "gelaat": 9008,
      "anal": 9009,
      "plaaslike": 9010,
      "beperk": 9011,
      "teenoor": 9012,
      "tiw": 9013,
      "onthou": 9014,
      "ika": 9015,
      "sommer": 9016,
      "Porno": 9017,
      "voorsien": 9018,
      "indien": 9019,
      "SK": 9020,
      "gesig": 9021,
      "Self": 9022,
      "fontein": 9023,
      "area": 9024,
      "41": 9025,
      "besonder": 9026,
      "watter": 9027,
      "oela": 9028,
      "vroe": 9029,
      "ance": 9030,
      "OU": 9031,
      "veroorsaak": 9032,
      "besef": 9033,
      "platform": 9034,
      "bid": 9035,
      "elek": 9036,
      "akers": 9037,
      "AP": 9038,
      "ior": 9039,
      "mu": 9040,
      "Beste": 9041,
      "verband": 9042,
      "gemene": 9043,
      "vent": 9044,
      "Kerk": 9045,
      "omp": 9046,
      "toekoms": 9047,
      "storie": 9048,
      "ifiseer": 9049,
      "individ": 9050,
      "sagteware": 9051,
      "ount": 9052,
      "Best": 9053,
      "lin": 9054,
      "irl": 9055,
      "nuut": 9056,
      "gesin": 9057,
      "wyse": 9058,
      "dad": 9059,
      "kende": 9060,
      "kond": 9061,
      "Maroela": 9062,
      "ject": 9063,
      "verhoog": 9064,
      "punte": 9065,
      "real": 9066,
      "skom": 9067,
      "ations": 9068,
      "fokus": 9069,
      "Ko": 9070,
      "koer": 9071,
      "vrug": 9072,
      "verbeter": 9073,
      "wig": 9074,
      "minute": 9075,
      "kans": 9076,
      "Maak": 9077,
      "Gro": 9078,
      "Kyk": 9079,
      "Mil": 9080,
      "bat": 9081,
      "indelik": 9082,
      "ana": 9083,
      "car": 9084,
      "Water": 9085,
      "wood": 9086,
      "black": 9087,
      "gedeel": 9088,
      "result": 9089,
      "straat": 9090,
      "dollar": 9091,
      "hor": 9092,
      "views": 9093,
      "iefde": 9094,
      "aste": 9095,
      "temal": 9096,
      "fa": 9097,
      "Maatsoek": 9098,
      "77": 9099,
      "organis": 9100,
      "mes": 9101,
      "lee": 9102,
      "kep": 9103,
      "trad": 9104,
      "cur": 9105,
      "Bur": 9106,
      "oudig": 9107,
      "bie": 9108,
      "ves": 9109,
      "behoort": 9110,
      "vrae": 9111,
      "wetenskap": 9112,
      "Elke": 9113,
      "ville": 9114,
      "ners": 9115,
      "kons": 9116,
      "Vis": 9117,
      "cm": 9118,
      "ities": 9119,
      "time": 9120,
      "ung": 9121,
      "gesels": 9122,
      "lat": 9123,
      "Vr": 9124,
      "persoonlike": 9125,
      "deer": 9126,
      "Free": 9127,
      "Plaas": 9128,
      "porno": 9129,
      "uele": 9130,
      "John": 9131,
      "oomblik": 9132,
      "stat": 9133,
      "eth": 9134,
      "Afspraak": 9135,
      "waarskynlik": 9136,
      "natuurlik": 9137,
      "post": 9138,
      "dankie": 9139,
      "weke": 9140,
      "belangrike": 9141,
      "roep": 9142,
      "wers": 9143,
      "aantal": 9144,
      "adem": 9145,
      "por": 9146,
      "wild": 9147,
      "ational": 9148,
      "53": 9149,
      "antwoor": 9150,
      "Au": 9151,
      "ider": 9152,
      "tenis": 9153,
      "Dié": 9154,
      "Persoonlik": 9155,
      "sorg": 9156,
      "bit": 9157,
      "Red": 9158,
      "etjies": 9159,
      "Africa": 9160,
      "rot": 9161,
      "boer": 9162,
      "vlie": 9163,
      "bladsy": 9164,
      "nee": 9165,
      "ergie": 9166,
      "sedert": 9167,
      "uidige": 9168,
      "soveel": 9169,
      "Nederland": 9170,
      "Gel": 9171,
      "win": 9172,
      "mater": 9173,
      "Handel": 9174,
      "tek": 9175,
      "bus": 9176,
      "Week": 9177,
      "gelde": 9178,
      "hist": 9179,
      "Vrouens": 9180,
      "politieke": 9181,
      "boom": 9182,
      "Park": 9183,
      "kunde": 9184,
      "OM": 9185,
      "gie": 9186,
      "68": 9187,
      "etail": 9188,
      "aller": 9189,
      "Nuwe": 9190,
      "Mic": 9191,
      "ply": 9192,
      "gestuur": 9193,
      "load": 9194,
      "Post": 9195,
      "ikasie": 9196,
      "ras": 9197,
      "toegang": 9198,
      "nek": 9199,
      "Enkellopendes": 9200,
      "tings": 9201,
      "Sol": 9202,
      "athroom": 9203,
      "yl": 9204,
      "500": 9205,
      "rom": 9206,
      "handelaar": 9207,
      "valuta": 9208,
      "uitvoer": 9209,
      "rukt": 9210,
      "ces": 9211,
      "back": 9212,
      "Land": 9213,
      "liks": 9214,
      "sowel": 9215,
      "put": 9216,
      "mik": 9217,
      "odes": 9218,
      "Mal": 9219,
      "swe": 9220,
      "ife": 9221,
      "esie": 9222,
      "Qu": 9223,
      "OL": 9224,
      "verantwoor": 9225,
      "OP": 9226,
      "Vers": 9227,
      "gooi": 9228,
      "afgelope": 9229,
      "pap": 9230,
      "Mark": 9231,
      "gh": 9232,
      "gehe": 9233,
      "rik": 9234,
      "Bre": 9235,
      "sosiale": 9236,
      "verduidelik": 9237,
      "voorkom": 9238,
      "nm": 9239,
      "elk": 9240,
      "vuur": 9241,
      "Word": 9242,
      "gegaan": 9243,
      "noem": 9244,
      "II": 9245,
      "Pet": 9246,
      "lid": 9247,
      "sto": 9248,
      "verhaal": 9249,
      "Mis": 9250,
      "Dankie": 9251,
      "It": 9252,
      "sland": 9253,
      "Persoonlikes": 9254,
      "hank": 9255,
      "vrees": 9256,
      "52": 9257,
      "amer": 9258,
      "studie": 9259,
      "69": 9260,
      "79": 9261,
      "54": 9262,
      "At": 9263,
      "ML": 9264,
      "All": 9265,
      "hoek": 9266,
      "sku": 9267,
      "bon": 9268,
      "spro": 9269,
      "arr": 9270,
      "profess": 9271,
      "51": 9272,
      "ekonomiese": 9273,
      "situ": 9274,
      "studente": 9275,
      "geweld": 9276,
      "ument": 9277,
      "moor": 9278,
      "​​": 9279,
      "aw": 9280,
      "pen": 9281,
      "byvoorbeeld": 9282,
      "Borste": 9283,
      "nike": 9284,
      "behoef": 9285,
      "bloot": 9286,
      "ert": 9287,
      "aseer": 9288,
      "eenvoudig": 9289,
      "Swe": 9290,
      "Alle": 9291,
      "ose": 9292,
      "persent": 9293,
      "ament": 9294,
      "ustral": 9295,
      "heeltemal": 9296,
      "Mense": 9297,
      "dank": 9298,
      "gereed": 9299,
      "aangesien": 9300,
      "huidige": 9301,
      "kontak": 9302,
      "aans": 9303,
      "Binêre": 9304,
      "kal": 9305,
      "hed": 9306,
      "PEK": 9307,
      "Lesb": 9308,
      "ouder": 9309,
      "ving": 9310,
      "beweeg": 9311,
      "mond": 9312,
      "beweg": 9313,
      "mers": 9314,
      "kamers": 9315,
      "Tot": 9316,
      "wysig": 9317,
      "cre": 9318,
      "Mond": 9319,
      "Nor": 9320,
      "part": 9321,
      "AD": 9322,
      "Ander": 9323,
      "CH": 9324,
      "gebaseer": 9325,
      "gesprek": 9326,
      "aanwys": 9327,
      "wek": 9328,
      "afhank": 9329,
      "demo": 9330,
      "band": 9331,
      "swaar": 9332,
      "att": 9333,
      "IK": 9334,
      "moder": 9335,
      "iger": 9336,
      "leis": 9337,
      "ital": 9338,
      "voet": 9339,
      "inks": 9340,
      "sprake": 9341,
      "ai": 9342,
      "tye": 9343,
      "sub": 9344,
      "astur": 9345,
      "gaste": 9346,
      "bewus": 9347,
      "elektr": 9348,
      "Mens": 9349,
      "Spr": 9350,
      "enigste": 9351,
      "kien": 9352,
      "bekende": 9353,
      "unie": 9354,
      "AB": 9355,
      "wal": 9356,
      "styl": 9357,
      "hoekom": 9358,
      "cle": 9359,
      "sowat": 9360,
      "aanval": 9361,
      "verdien": 9362,
      "2007": 9363,
      "oplos": 9364,
      "klim": 9365,
      "datum": 9366,
      "siel": 9367,
      "nl": 9368,
      "verby": 9369,
      "Mos": 9370,
      "ategorie": 9371,
      "daarna": 9372,
      "beskerm": 9373,
      "afel": 9374,
      "ence": 9375,
      "ya": 9376,
      "kre": 9377,
      "istiese": 9378,
      "spreek": 9379,
      "gebring": 9380,
      "ervaring": 9381,
      "ded": 9382,
      "sed": 9383,
      "esta": 9384,
      "Ru": 9385,
      "nom": 9386,
      "bedien": 9387,
      "bod": 9388,
      "toest": 9389,
      "baan": 9390,
      "Kaapstad": 9391,
      "thou": 9392,
      "navorsing": 9393,
      "Publ": 9394,
      "aris": 9395,
      "pret": 9396,
      "Mid": 9397,
      "veg": 9398,
      "erken": 9399,
      "tegnie": 9400,
      "vrede": 9401,
      "skole": 9402,
      "fir": 9403,
      "sulke": 9404,
      "toets": 9405,
      "Verenig": 9406,
      "olf": 9407,
      "OT": 9408,
      "dent": 9409,
      "tjies": 9410,
      "pyn": 9411,
      "rein": 9412,
      "goud": 9413,
      "ked": 9414,
      "ams": 9415,
      "buitelandse": 9416,
      "oorspronk": 9417,
      "kondig": 9418,
      "istr": 9419,
      "gemeente": 9420,
      "Twee": 9421,
      "baai": 9422,
      "werklik": 9423,
      "lok": 9424,
      "ize": 9425,
      "cent": 9426,
      "Sond": 9427,
      "Mon": 9428,
      "Afrikaners": 9429,
      "Austral": 9430,
      "sleutel": 9431,
      "lus": 9432,
      "ioen": 9433,
      "were": 9434,
      "waarvan": 9435,
      "inner": 9436,
      "IL": 9437,
      "blief": 9438,
      "Rep": 9439,
      "ED": 9440,
      "Char": 9441,
      "ursus": 9442,
      "waarop": 9443,
      "vermo": 9444,
      "beplan": 9445,
      "vies": 9446,
      "jarige": 9447,
      "az": 9448,
      "pon": 9449,
      "their": 9450,
      "rael": 9451,
      "gewig": 9452,
      "jouself": 9453,
      "67": 9454,
      "bevat": 9455,
      "weens": 9456,
      "bydra": 9457,
      "Ag": 9458,
      "Gees": 9459,
      "vereis": 9460,
      "West": 9461,
      "aarte": 9462,
      "enter": 9463,
      "rog": 9464,
      "neming": 9465,
      "dier": 9466,
      "tement": 9467,
      "kommentaar": 9468,
      "tuin": 9469,
      "Ser": 9470,
      "wende": 9471,
      "gewerk": 9472,
      "Will": 9473,
      "iënte": 9474,
      "LCD": 9475,
      "verantwoordelik": 9476,
      "bra": 9477,
      "pye": 9478,
      "Mus": 9479,
      "sm": 9480,
      "Geen": 9481,
      "uut": 9482,
      "drink": 9483,
      "waarom": 9484,
      "vorige": 9485,
      "gevra": 9486,
      "work": 9487,
      "laag": 9488,
      "ada": 9489,
      "andel": 9490,
      "treff": 9491,
      "ote": 9492,
      "alleen": 9493,
      "beskryf": 9494,
      "neakers": 9495,
      "daai": 9496,
      "keuse": 9497,
      "mede": 9498,
      "House": 9499,
      "berig": 9500,
      "Facebook": 9501,
      "hosp": 9502,
      "verske": 9503,
      "Israel": 9504,
      "boere": 9505,
      "gebore": 9506,
      "ni": 9507,
      "ender": 9508,
      "bei": 9509,
      "bang": 9510,
      "ward": 9511,
      "bbel": 9512,
      "mente": 9513,
      "same": 9514,
      "hond": 9515,
      "Vrydag": 9516,
      "IR": 9517,
      "vlieg": 9518,
      "va": 9519,
      "blyk": 9520,
      "nologie": 9521,
      "orge": 9522,
      "defin": 9523,
      "live": 9524,
      "Gay": 9525,
      "Lek": 9526,
      "prent": 9527,
      "Ken": 9528,
      "opge": 9529,
      "Wet": 9530,
      "tru": 9531,
      "funks": 9532,
      "Ben": 9533,
      "besit": 9534,
      "winkel": 9535,
      "opleiding": 9536,
      "pragtige": 9537,
      "ited": 9538,
      "stroom": 9539,
      "ates": 9540,
      "Port": 9541,
      "info": 9542,
      "skrywer": 9543,
      "gids": 9544,
      "internasionale": 9545,
      "rondom": 9546,
      "NG": 9547,
      "bil": 9548,
      "gar": 9549,
      "stellings": 9550,
      "posisie": 9551,
      "Indi": 9552,
      "64": 9553,
      "slae": 9554,
      "kus": 9555,
      "Indien": 9556,
      "cas": 9557,
      "UK": 9558,
      "swak": 9559,
      "ket": 9560,
      "vergelyk": 9561,
      "mem": 9562,
      "well": 9563,
      "verwy": 9564,
      "Sun": 9565,
      "bosch": 9566,
      "gay": 9567,
      "aaie": 9568,
      "begr": 9569,
      "gewone": 9570,
      "idee": 9571,
      "bevestig": 9572,
      "energie": 9573,
      "gereeld": 9574,
      "karak": 9575,
      "Mot": 9576,
      "rooi": 9577,
      "sam": 9578,
      "herstel": 9579,
      "aktiw": 9580,
      "WE": 9581,
      "veilig": 9582,
      "asseblief": 9583,
      "geleer": 9584,
      "toege": 9585,
      "getu": 9586,
      "cel": 9587,
      "idenheid": 9588,
      "PM": 9589,
      "que": 9590,
      "gu": 9591,
      "rys": 9592,
      "Laat": 9593,
      "vet": 9594,
      "gre": 9595,
      "kommer": 9596,
      "instru": 9597,
      "Afrikaner": 9598,
      "ely": 9599,
      "gewoon": 9600,
      "dens": 9601,
      "erste": 9602,
      "gespe": 9603,
      "ating": 9604,
      "spesifieke": 9605,
      "Fe": 9606,
      "vriend": 9607,
      "wyd": 9608,
      "about": 9609,
      "asof": 9610,
      "ext": 9611,
      "steek": 9612,
      "waarheid": 9613,
      "sale": 9614,
      "lied": 9615,
      "rugby": 9616,
      "meng": 9617,
      "vlug": 9618,
      "ork": 9619,
      "Tags": 9620,
      "IG": 9621,
      "Sport": 9622,
      "Oc": 9623,
      "sil": 9624,
      "luister": 9625,
      "ilige": 9626,
      "sj": 9627,
      "sep": 9628,
      "blyf": 9629,
      "rigting": 9630,
      "dogter": 9631,
      "blom": 9632,
      "vreem": 9633,
      "koning": 9634,
      "gevaar": 9635,
      "acc": 9636,
      "Inst": 9637,
      "ongeveer": 9638,
      "las": 9639,
      "agram": 9640,
      "slaan": 9641,
      "beide": 9642,
      "ooreen": 9643,
      "gelei": 9644,
      "under": 9645,
      "Tuis": 9646,
      "verlies": 9647,
      "rup": 9648,
      "PS": 9649,
      "neer": 9650,
      "gely": 9651,
      "Sonder": 9652,
      "beveel": 9653,
      "Stellen": 9654,
      "iker": 9655,
      "bewys": 9656,
      "uck": 9657,
      "vervaardig": 9658,
      "uiteindelik": 9659,
      "Sondag": 9660,
      "dere": 9661,
      "Super": 9662,
      "algemene": 9663,
      "Don": 9664,
      "baba": 9665,
      "amper": 9666,
      "tie": 9667,
      "spelers": 9668,
      "Pat": 9669,
      "IV": 9670,
      "Britse": 9671,
      "waardes": 9672,
      "stop": 9673,
      "lae": 9674,
      "uleer": 9675,
      "meisie": 9676,
      "Ol": 9677,
      "spoor": 9678,
      "Ki": 9679,
      "rekenaar": 9680,
      "had": 9681,
      "gesit": 9682,
      "glad": 9683,
      "book": 9684,
      "hi": 9685,
      "letter": 9686,
      "Makel": 9687,
      "tak": 9688,
      "verskeidenheid": 9689,
      "Kids": 9690,
      "Down": 9691,
      "verd": 9692,
      "kommod": 9693,
      "onger": 9694,
      "Bou": 9695,
      "halwe": 9696,
      "juis": 9697,
      "tief": 9698,
      "oordeel": 9699,
      "veiligheid": 9700,
      "verminder": 9701,
      "HE": 9702,
      "ita": 9703,
      "his": 9704,
      "wap": 9705,
      "Liefde": 9706,
      "ipedia": 9707,
      "IM": 9708,
      "krit": 9709,
      "geleenthede": 9710,
      "skuld": 9711,
      "Wie": 9712,
      "rass": 9713,
      "Johannesburg": 9714,
      "Verenigde": 9715,
      "Haar": 9716,
      "Mans": 9717,
      "vid": 9718,
      "tipe": 9719,
      "state": 9720,
      "ussy": 9721,
      "Teen": 9722,
      "eff": 9723,
      "spesiale": 9724,
      "AK": 9725,
      "Let": 9726,
      "press": 9727,
      "verandering": 9728,
      "nemers": 9729,
      "maatskappye": 9730,
      "Ster": 9731,
      "univers": 9732,
      "Woord": 9733,
      "Sale": 9734,
      "which": 9735,
      "vleis": 9736,
      "hoto": 9737,
      "Oul": 9738,
      "nel": 9739,
      "saaklik": 9740,
      "belangrikste": 9741,
      "elkeen": 9742,
      "Sto": 9743,
      "iver": 9744,
      "ret": 9745,
      "oning": 9746,
      "October": 9747,
      "gesel": 9748,
      "other": 9749,
      "oriese": 9750,
      "tyds": 9751,
      "leier": 9752,
      "aflaai": 9753,
      "gou": 9754,
      "oogle": 9755,
      "verga": 9756,
      "76": 9757,
      "VSA": 9758,
      "maal": 9759,
      "werke": 9760,
      "inkomste": 9761,
      "cal": 9762,
      "verslag": 9763,
      "gan": 9764,
      "aangebied": 9765,
      "98": 9766,
      "Sater": 9767,
      "kaarte": 9768,
      "ooie": 9769,
      "blok": 9770,
      "ju": 9771,
      "borg": 9772,
      "webwerwe": 9773,
      "brief": 9774,
      "dur": 9775,
      "Che": 9776,
      "eind": 9777,
      "who": 9778,
      "ouderdom": 9779,
      "Wêreld": 9780,
      "atiewe": 9781,
      "seine": 9782,
      "tering": 9783,
      "huise": 9784,
      "ns": 9785,
      "vakansie": 9786,
      "wan": 9787,
      "ott": 9788,
      "down": 9789,
      "Wo": 9790,
      "Zuma": 9791,
      "stories": 9792,
      "IP": 9793,
      "hotel": 9794,
      "High": 9795,
      "ney": 9796,
      "graad": 9797,
      "Val": 9798,
      "Mastur": 9799,
      "Jer": 9800,
      "Frank": 9801,
      "Max": 9802,
      "Open": 9803,
      "Sek": 9804,
      "ful": 9805,
      "hoër": 9806,
      "tions": 9807,
      "verteenwoordig": 9808,
      "ieer": 9809,
      "vall": 9810,
      "president": 9811,
      "ats": 9812,
      "mate": 9813,
      "spoed": 9814,
      "essie": 9815,
      "geleë": 9816,
      "niemand": 9817,
      "Acc": 9818,
      "klik": 9819,
      "Sim": 9820,
      "ologiese": 9821,
      "ages": 9822,
      "spy": 9823,
      "ci": 9824,
      "kombuis": 9825,
      "San": 9826,
      "Wind": 9827,
      "OS": 9828,
      "cks": 9829,
      "produksie": 9830,
      "tiewe": 9831,
      "gesluit": 9832,
      "voorspel": 9833,
      "CA": 9834,
      "Deel": 9835,
      "bespreek": 9836,
      "bronne": 9837,
      "aanbied": 9838,
      "Stre": 9839,
      "loer": 9840,
      "anje": 9841,
      "idge": 9842,
      "job": 9843,
      "daarom": 9844,
      "iede": 9845,
      "ERS": 9846,
      "foon": 9847,
      "estaur": 9848,
      "verbind": 9849,
      "Book": 9850,
      "wilde": 9851,
      "Lond": 9852,
      "verkry": 9853,
      "ron": 9854,
      "any": 9855,
      "aansoek": 9856,
      "Mod": 9857,
      "Gebruik": 9858,
      "baarheid": 9859,
      "gesondheid": 9860,
      "uitdag": 9861,
      "AND": 9862,
      "boodskap": 9863,
      "Sil": 9864,
      "wak": 9865,
      "Sex": 9866,
      "ondersteuning": 9867,
      "diet": 9868,
      "isip": 9869,
      "tar": 9870,
      "300": 9871,
      "asil": 9872,
      "Hotel": 9873,
      "Huis": 9874,
      "ogen": 9875,
      "Oos": 9876,
      "Out": 9877,
      "BE": 9878,
      "brood": 9879,
      "algemeen": 9880,
      "pop": 9881,
      "lam": 9882,
      "Makelaars": 9883,
      "Bed": 9884,
      "lose": 9885,
      "groen": 9886,
      "Stellenbosch": 9887,
      "lis": 9888,
      "isoen": 9889,
      "vee": 9890,
      "kuier": 9891,
      "nal": 9892,
      "bevind": 9893,
      "inhoud": 9894,
      "Wal": 9895,
      "lot": 9896,
      "Saterdag": 9897,
      "finansiële": 9898,
      "ervaar": 9899,
      "getrou": 9900,
      "standig": 9901,
      "Persoon": 9902,
      "beelde": 9903,
      "sings": 9904,
      "webcam": 9905,
      "ini": 9906,
      "Kort": 9907,
      "roon": 9908,
      "oenie": 9909,
      "alte": 9910,
      "vorder": 9911,
      "interess": 9912,
      "volt": 9913,
      "Dep": 9914,
      "kommun": 9915,
      "vermoë": 9916,
      "ais": 9917,
      "ips": 9918,
      "umber": 9919,
      "Mas": 9920,
      "Pie": 9921,
      "less": 9922,
      "gedurende": 9923,
      "basis": 9924,
      "Fun": 9925,
      "kursus": 9926,
      "voordeel": 9927,
      "enie": 9928,
      "verkl": 9929,
      "naweek": 9930,
      "Vo": 9931,
      "Oud": 9932,
      "presies": 9933,
      "yf": 9934,
      "Gra": 9935,
      "park": 9936,
      "Tur": 9937,
      "wol": 9938,
      "oudige": 9939,
      "sterf": 9940,
      "ule": 9941,
      "Dog": 9942,
      "tend": 9943,
      "oede": 9944,
      "eenheid": 9945,
      "bum": 9946,
      "they": 9947,
      "Lee": 9948,
      "pog": 9949,
      "gedink": 9950,
      "trou": 9951,
      "ging": 9952,
      "tha": 9953,
      "AF": 9954,
      "74": 9955,
      "people": 9956,
      "Natuur": 9957,
      "Forum": 9958,
      "eeu": 9959,
      "diegene": 9960,
      "offer": 9961,
      "Fin": 9962,
      "groepe": 9963,
      "beleid": 9964,
      "Nog": 9965,
      "ontdek": 9966,
      "donker": 9967,
      "ago": 9968,
      "ave": 9969,
      "Ant": 9970,
      "rivier": 9971,
      "stens": 9972,
      "insp": 9973,
      "esh": 9974,
      "Plus": 9975,
      "Bos": 9976,
      "ax": 9977,
      "markte": 9978,
      "super": 9979,
      "SP": 9980,
      "geer": 9981,
      "klere": 9982,
      "privaat": 9983,
      "melk": 9984,
      "72": 9985,
      "hum": 9986,
      "kur": 9987,
      "Los": 9988,
      "laas": 9989,
      "Daarom": 9990,
      "bene": 9991,
      "half": 9992,
      "Warm": 9993,
      "geraak": 9994,
      "pdf": 9995,
      "vergeet": 9996,
      "alings": 9997,
      "ruil": 9998,
      "Ook": 9999,
      "Prof": 10000,
      "ekonomie": 10001,
      "pleeg": 10002,
      "situasie": 10003,
      "ruimte": 10004,
      "Ed": 10005,
      "mass": 10006,
      "ield": 10007,
      "awe": 10008,
      "Oo": 10009,
      "aph": 10010,
      "Sat": 10011,
      "kinder": 10012,
      "kultuur": 10013,
      "werkers": 10014,
      "Ten": 10015,
      "mp": 10016,
      "ontak": 10017,
      "oorspronklike": 10018,
      "eil": 10019,
      "kruis": 10020,
      "vanjaar": 10021,
      "waarsku": 10022,
      "Hoekom": 10023,
      "Wik": 10024,
      "maniere": 10025,
      "jam": 10026,
      "Hard": 10027,
      "liter": 10028,
      "Gaan": 10029,
      "alth": 10030,
      "Blue": 10031,
      "kg": 10032,
      "var": 10033,
      "State": 10034,
      "kantoor": 10035,
      "cht": 10036,
      "MA": 10037,
      "ontle": 10038,
      "product": 10039,
      "Moenie": 10040,
      "moedig": 10041,
      "63": 10042,
      "verhandel": 10043,
      "hanteer": 10044,
      "Cas": 10045,
      "bun": 10046,
      "strukt": 10047,
      "skil": 10048,
      "via": 10049,
      "meisies": 10050,
      "89": 10051,
      "verwyder": 10052,
      "2005": 10053,
      "White": 10054,
      "bestuurder": 10055,
      "gespeel": 10056,
      "shirt": 10057,
      "Dav": 10058,
      "Kat": 10059,
      "Ham": 10060,
      "reëls": 10061,
      "Nasionale": 10062,
      "duis": 10063,
      "inkryk": 10064,
      "62": 10065,
      "nut": 10066,
      "abil": 10067,
      "aties": 10068,
      "Ged": 10069,
      "agtig": 10070,
      "sup": 10071,
      "Pres": 10072,
      "uil": 10073,
      "Lat": 10074,
      "eiendom": 10075,
      "deposit": 10076,
      "Bet": 10077,
      "toel": 10078,
      "there": 10079,
      "beurs": 10080,
      "eling": 10081,
      "getrek": 10082,
      "ific": 10083,
      "MS": 10084,
      "missie": 10085,
      "date": 10086,
      "von": 10087,
      "Cont": 10088,
      "ps": 10089,
      "Ital": 10090,
      "61": 10091,
      "Bru": 10092,
      "fac": 10093,
      "norm": 10094,
      "passie": 10095,
      "Fotos": 10096,
      "ici": 10097,
      "Pot": 10098,
      "geplaas": 10099,
      "inwon": 10100,
      "Bus": 10101,
      "Buitel": 10102,
      "wings": 10103,
      "stal": 10104,
      "geste": 10105,
      "internet": 10106,
      "ena": 10107,
      "fis": 10108,
      "twerk": 10109,
      "gestaan": 10110,
      "petisie": 10111,
      "ongeluk": 10112,
      "nd": 10113,
      "houdings": 10114,
      "vroeg": 10115,
      "enkele": 10116,
      "hemel": 10117,
      "fel": 10118,
      "telik": 10119,
      "Women": 10120,
      "materiaal": 10121,
      "openbare": 10122,
      "Do": 10123,
      "seisoen": 10124,
      "droog": 10125,
      "koek": 10126,
      "ara": 10127,
      "ume": 10128,
      "versamel": 10129,
      "ices": 10130,
      "cou": 10131,
      "VAN": 10132,
      "gevalle": 10133,
      "Google": 10134,
      "tegnologie": 10135,
      "welkom": 10136,
      "oute": 10137,
      "uitste": 10138,
      "UN": 10139,
      "gebruikers": 10140,
      "bestel": 10141,
      "leep": 10142,
      "Duitsland": 10143,
      "vie": 10144,
      "betekenis": 10145,
      "Hoër": 10146,
      "MLS": 10147,
      "gedra": 10148,
      "daaroor": 10149,
      "Sam": 10150,
      "Display": 10151,
      "prest": 10152,
      "strategieë": 10153,
      "Amerika": 10154,
      "opper": 10155,
      "talle": 10156,
      "ona": 10157,
      "gebe": 10158,
      "strand": 10159,
      "girl": 10160,
      "vernie": 10161,
      "cer": 10162,
      "GR": 10163,
      "Lit": 10164,
      "fyn": 10165,
      "Hoof": 10166,
      "hoogte": 10167,
      "vlakke": 10168,
      "koper": 10169,
      "huwel": 10170,
      "Press": 10171,
      "ather": 10172,
      "skie": 10173,
      "bag": 10174,
      "iges": 10175,
      "85": 10176,
      "meet": 10177,
      "benodig": 10178,
      "film": 10179,
      "BL": 10180,
      "metode": 10181,
      "minste": 10182,
      "ved": 10183,
      "tydperk": 10184,
      "look": 10185,
      "itte": 10186,
      "Naak": 10187,
      "Gar": 10188,
      "atuur": 10189,
      "Vrystaat": 10190,
      "ives": 10191,
      "hare": 10192,
      "verkeerd": 10193,
      "gebiede": 10194,
      "basiese": 10195,
      "News": 10196,
      "max": 10197,
      "kla": 10198,
      "wedstryd": 10199,
      "kook": 10200,
      "Maandag": 10201,
      "passing": 10202,
      "gedig": 10203,
      "byna": 10204,
      "sters": 10205,
      "witter": 10206,
      "Trans": 10207,
      "daarin": 10208,
      "Cape": 10209,
      "ford": 10210,
      "bol": 10211,
      "versoek": 10212,
      "verbruik": 10213,
      "Kor": 10214,
      "Want": 10215,
      "meter": 10216,
      "straf": 10217,
      "homself": 10218,
      "Jun": 10219,
      "inform": 10220,
      "dryf": 10221,
      "Bay": 10222,
      "Off": 10223,
      "doende": 10224,
      "entr": 10225,
      "Persoonlike": 10226,
      "programme": 10227,
      "standighede": 10228,
      "laer": 10229,
      "swem": 10230,
      "Son": 10231,
      "HER": 10232,
      "leerders": 10233,
      "gesken": 10234,
      "Besoek": 10235,
      "plig": 10236,
      "yer": 10237,
      "Mondseks": 10238,
      "orde": 10239,
      "plaat": 10240,
      "vm": 10241,
      "tle": 10242,
      "Nam": 10243,
      "also": 10244,
      "some": 10245,
      "2006": 10246,
      "oral": 10247,
      "publiseer": 10248,
      "gods": 10249,
      "rab": 10250,
      "deposito": 10251,
      "ulu": 10252,
      "sens": 10253,
      "Vind": 10254,
      "PD": 10255,
      "byt": 10256,
      "skiet": 10257,
      "wonderlike": 10258,
      "bedoel": 10259,
      "sur": 10260,
      "Nee": 10261,
      "reën": 10262,
      "burger": 10263,
      "Vand": 10264,
      "TienerTiener": 10265,
      "onlangs": 10266,
      "gedrag": 10267,
      "Kry": 10268,
      "forum": 10269,
      "skyn": 10270,
      "Terwyl": 10271,
      "trede": 10272,
      "title": 10273,
      "iatiese": 10274,
      "stort": 10275,
      "73": 10276,
      "manne": 10277,
      "loos": 10278,
      "gerig": 10279,
      "voordele": 10280,
      "ays": 10281,
      "nam": 10282,
      "middelde": 10283,
      "iend": 10284,
      "Wed": 10285,
      "offie": 10286,
      "School": 10287,
      "Kru": 10288,
      "Sommige": 10289,
      "gemiddelde": 10290,
      "perfek": 10291,
      "voltooi": 10292,
      "Vill": 10293,
      "Download": 10294,
      "iness": 10295,
      "blou": 10296,
      "Get": 10297,
      "enkel": 10298,
      "verblyf": 10299,
      "ced": 10300,
      "sekur": 10301,
      "ox": 10302,
      "lothing": 10303,
      "Can": 10304,
      "virgin": 10305,
      "ongs": 10306,
      "Dur": 10307,
      "Sneakers": 10308,
      "Sing": 10309,
      "asem": 10310,
      "grootte": 10311,
      "minister": 10312,
      "make": 10313,
      "Sty": 10314,
      "atie": 10315,
      "ants": 10316,
      "ional": 10317,
      "Bloem": 10318,
      "aksies": 10319,
      "Price": 10320,
      "Rug": 10321,
      "natuurlike": 10322,
      "NE": 10323,
      "wante": 10324,
      "jul": 10325,
      "arts": 10326,
      "gehalte": 10327,
      "Bank": 10328,
      "Leer": 10329,
      "arem": 10330,
      "Buy": 10331,
      "ternat": 10332,
      "gif": 10333,
      "uitsig": 10334,
      "Vader": 10335,
      "invloed": 10336,
      "omstandighede": 10337,
      "Cal": 10338,
      "LCDs": 10339,
      "reig": 10340,
      "sper": 10341,
      "tw": 10342,
      "icht": 10343,
      "pies": 10344,
      "landbou": 10345,
      "verklaar": 10346,
      "Reply": 10347,
      "hospitaal": 10348,
      "videos": 10349,
      "nommer": 10350,
      "Hal": 10351,
      "skop": 10352,
      "outom": 10353,
      "cted": 10354,
      "lex": 10355,
      "what": 10356,
      "dubbel": 10357,
      "daarmee": 10358,
      "geweet": 10359,
      "bond": 10360,
      "heg": 10361,
      "beskry": 10362,
      "ones": 10363,
      "bw": 10364,
      "VER": 10365,
      "fect": 10366,
      "yr": 10367,
      "behandel": 10368,
      "moeder": 10369,
      "negat": 10370,
      "Sand": 10371,
      "vryheid": 10372,
      "eienaar": 10373,
      "Plaaslike": 10374,
      "Pieter": 10375,
      "usie": 10376,
      "regs": 10377,
      "klink": 10378,
      "June": 10379,
      "PR": 10380,
      "Donder": 10381,
      "gewe": 10382,
      "waarmee": 10383,
      "ason": 10384,
      "Skool": 10385,
      "ijn": 10386,
      "bonus": 10387,
      "fiets": 10388,
      "behulp": 10389,
      "Smit": 10390,
      "Produ": 10391,
      "Kers": 10392,
      "daaraan": 10393,
      "kliënte": 10394,
      "Europa": 10395,
      "Werk": 10396,
      "daarvoor": 10397,
      "dees": 10398,
      "Med": 10399,
      "klip": 10400,
      "ws": 10401,
      "Ram": 10402,
      "Japan": 10403,
      "mie": 10404,
      "moeite": 10405,
      "Den": 10406,
      "spring": 10407,
      "erde": 10408,
      "ensdag": 10409,
      "oes": 10410,
      "ular": 10411,
      "oft": 10412,
      "Stu": 10413,
      "Mc": 10414,
      "ekstra": 10415,
      "bereken": 10416,
      "php": 10417,
      "Ind": 10418,
      "Game": 10419,
      "dring": 10420,
      "toestand": 10421,
      "toegelaat": 10422,
      "partement": 10423,
      "Male": 10424,
      "rente": 10425,
      "African": 10426,
      "George": 10427,
      "71": 10428,
      "myself": 10429,
      "CO": 10430,
      "admin": 10431,
      "EUR": 10432,
      "gelees": 10433,
      "geldeenheid": 10434,
      "belegging": 10435,
      "heers": 10436,
      "iss": 10437,
      "Program": 10438,
      "400": 10439,
      "Cre": 10440,
      "beth": 10441,
      "adering": 10442,
      "ongeloof": 10443,
      "luit": 10444,
      "members": 10445,
      "osa": 10446,
      "volge": 10447,
      "Gaut": 10448,
      "Wy": 10449,
      "Brand": 10450,
      "akty": 10451,
      "FF": 10452,
      "Mak": 10453,
      "slim": 10454,
      "voeding": 10455,
      "now": 10456,
      "Stra": 10457,
      "nit": 10458,
      "siekte": 10459,
      "China": 10460,
      "meld": 10461,
      "gewees": 10462,
      "BR": 10463,
      "imum": 10464,
      "Ontmoeting": 10465,
      "droom": 10466,
      "koerse": 10467,
      "betrek": 10468,
      "Bas": 10469,
      "beïn": 10470,
      "KiB": 10471,
      "Next": 10472,
      "nader": 10473,
      "ural": 10474,
      "aandeel": 10475,
      "inders": 10476,
      "wye": 10477,
      "jien": 10478,
      "speletjies": 10479,
      "staande": 10480,
      "menslike": 10481,
      "tain": 10482,
      "weergawe": 10483,
      "Nic": 10484,
      "ontstaan": 10485,
      "kings": 10486,
      "Real": 10487,
      "Goeie": 10488,
      "voerder": 10489,
      "hers": 10490,
      "medi": 10491,
      "Code": 10492,
      "AAAA": 10493,
      "dro": 10494,
      "geskep": 10495,
      "into": 10496,
      "read": 10497,
      "Eerste": 10498,
      "ony": 10499,
      "just": 10500,
      "sny": 10501,
      "Ac": 10502,
      "tafel": 10503,
      "Party": 10504,
      "ents": 10505,
      "icle": 10506,
      "plus": 10507,
      "zi": 10508,
      "inc": 10509,
      "grafie": 10510,
      "elle": 10511,
      "vrye": 10512,
      "langer": 10513,
      "spl": 10514,
      "komende": 10515,
      "voertuig": 10516,
      "key": 10517,
      "betaling": 10518,
      "pu": 10519,
      "Ret": 10520,
      "Mart": 10521,
      "persone": 10522,
      "UL": 10523,
      "stelsels": 10524,
      "ran": 10525,
      "redes": 10526,
      "onderrig": 10527,
      "ui": 10528,
      "werf": 10529,
      "prop": 10530,
      "AAR": 10531,
      "kas": 10532,
      "review": 10533,
      "hek": 10534,
      "Versk": 10535,
      "honde": 10536,
      "Praat": 10537,
      "seuns": 10538,
      "boodskappe": 10539,
      "braai": 10540,
      "personeel": 10541,
      "Jacob": 10542,
      "ending": 10543,
      "AG": 10544,
      "dor": 10545,
      "jes": 10546,
      "klub": 10547,
      "dadelik": 10548,
      "isering": 10549,
      "iza": 10550,
      "restaur": 10551,
      "gelê": 10552,
      "moderne": 10553,
      "professionele": 10554,
      "inwoners": 10555,
      "resensies": 10556,
      "erf": 10557,
      "white": 10558,
      "tigheid": 10559,
      "gister": 10560,
      "ience": 10561,
      "eenvoudige": 10562,
      "ades": 10563,
      "Netwerk": 10564,
      "kope": 10565,
      "bis": 10566,
      "gunstel": 10567,
      "robot": 10568,
      "toet": 10569,
      "gedagtes": 10570,
      "darem": 10571,
      "stede": 10572,
      "Dames": 10573,
      "sonde": 10574,
      "cap": 10575,
      "mi": 10576,
      "uldig": 10577,
      "Donderdag": 10578,
      "boot": 10579,
      "xt": 10580,
      "albei": 10581,
      "album": 10582,
      "kunsten": 10583,
      "vervang": 10584,
      "Gal": 10585,
      "beker": 10586,
      "grade": 10587,
      "daaglikse": 10588,
      "oond": 10589,
      "vrugte": 10590,
      "kwal": 10591,
      "vertrou": 10592,
      "vertroue": 10593,
      "Upd": 10594,
      "right": 10595,
      "Del": 10596,
      "led": 10597,
      "munisip": 10598,
      "hael": 10599,
      "resultate": 10600,
      "150": 10601,
      "97": 10602,
      "onderske": 10603,
      "fol": 10604,
      "gelow": 10605,
      "Oulik": 10606,
      "Han": 10607,
      "skade": 10608,
      "stadium": 10609,
      "Em": 10610,
      "fig": 10611,
      "fers": 10612,
      "bord": 10613,
      "totdat": 10614,
      "behandeling": 10615,
      "tuie": 10616,
      "glas": 10617,
      "anees": 10618,
      "Europese": 10619,
      "chen": 10620,
      "Bi": 10621,
      "Jack": 10622,
      "Pan": 10623,
      "nor": 10624,
      "MT": 10625,
      "ageer": 10626,
      "rec": 10627,
      "Lang": 10628,
      "high": 10629,
      "begrip": 10630,
      "test": 10631,
      "Gauteng": 10632,
      "bekommer": 10633,
      "glish": 10634,
      "index": 10635,
      "Sm": 10636,
      "iteits": 10637,
      "ines": 10638,
      "sers": 10639,
      "klop": 10640,
      "winkels": 10641,
      "Sexy": 10642,
      "vaardighede": 10643,
      "Gener": 10644,
      "2000": 10645,
      "vroeër": 10646,
      "Kun": 10647,
      "temming": 10648,
      "werd": 10649,
      "volwasse": 10650,
      "beleggings": 10651,
      "times": 10652,
      "voël": 10653,
      "idees": 10654,
      "bathroom": 10655,
      "orpor": 10656,
      "Maatsoekwebwerf": 10657,
      "ft": 10658,
      "Bag": 10659,
      "Sweat": 10660,
      "Woensdag": 10661,
      "skoen": 10662,
      "Ab": 10663,
      "onmiddel": 10664,
      "insdag": 10665,
      "gryp": 10666,
      "behoeftes": 10667,
      "bedrag": 10668,
      "dio": 10669,
      "itale": 10670,
      "jak": 10671,
      "rea": 10672,
      "oortuig": 10673,
      "Engelse": 10674,
      "Beg": 10675,
      "historiese": 10676,
      "rale": 10677,
      "uiters": 10678,
      "studies": 10679,
      "Afri": 10680,
      "nemings": 10681,
      "standaard": 10682,
      "oorw": 10683,
      "ots": 10684,
      "Rom": 10685,
      "Ha": 10686,
      "reking": 10687,
      "dry": 10688,
      "FX": 10689,
      "verlaat": 10690,
      "Tru": 10691,
      "afge": 10692,
      "oer": 10693,
      "July": 10694,
      "swanger": 10695,
      "ksie": 10696,
      "Rad": 10697,
      "fotos": 10698,
      "stukke": 10699,
      "SAR": 10700,
      "York": 10701,
      "istreer": 10702,
      "eienskappe": 10703,
      "Tim": 10704,
      "UT": 10705,
      "tiener": 10706,
      "Hoop": 10707,
      "dy": 10708,
      "tydse": 10709,
      "Moet": 10710,
      "Wester": 10711,
      "fout": 10712,
      "Product": 10713,
      "Asiatiese": 10714,
      "Weer": 10715,
      "Frans": 10716,
      "verklaring": 10717,
      "national": 10718,
      "OE": 10719,
      "likes": 10720,
      "come": 10721,
      "ijk": 10722,
      "anke": 10723,
      "door": 10724,
      "insluitend": 10725,
      "oniem": 10726,
      "uel": 10727,
      "ulasie": 10728,
      "only": 10729,
      "oorweeg": 10730,
      "Hoërskool": 10731,
      "umente": 10732,
      "dec": 10733,
      "bereid": 10734,
      "geskik": 10735,
      "werklikheid": 10736,
      "vervoer": 10737,
      "klem": 10738,
      "visie": 10739,
      "lege": 10740,
      "organisasie": 10741,
      "mediese": 10742,
      "soen": 10743,
      "kompetisie": 10744,
      "oorde": 10745,
      "essies": 10746,
      "jeans": 10747,
      "vars": 10748,
      "versprei": 10749,
      "86": 10750,
      "Eg": 10751,
      "Boer": 10752,
      "tas": 10753,
      "misdaad": 10754,
      "lement": 10755,
      "ondes": 10756,
      "vs": 10757,
      "tran": 10758,
      "mail": 10759,
      "streek": 10760,
      "rep": 10761,
      "them": 10762,
      "ery": 10763,
      "sag": 10764,
      "PL": 10765,
      "Hul": 10766,
      "Hoodies": 10767,
      "ball": 10768,
      "toen": 10769,
      "Ana": 10770,
      "iende": 10771,
      "onafhank": 10772,
      "vloei": 10773,
      "ween": 10774,
      "TR": 10775,
      "made": 10776,
      "miskien": 10777,
      "good": 10778,
      "fakt": 10779,
      "iat": 10780,
      "gekoop": 10781,
      "fore": 10782,
      "nod": 10783,
      "grafiek": 10784,
      "Li": 10785,
      "Artik": 10786,
      "Alhoewel": 10787,
      "Boere": 10788,
      "Rome": 10789,
      "winter": 10790,
      "ME": 10791,
      "rect": 10792,
      "tiese": 10793,
      "Pussy": 10794,
      "ology": 10795,
      "toneel": 10796,
      "staats": 10797,
      "Tube": 10798,
      "250": 10799,
      "Nieu": 10800,
      "ower": 10801,
      "moontlike": 10802,
      "planne": 10803,
      "absol": 10804,
      "uc": 10805,
      "masjien": 10806,
      "87": 10807,
      "karakter": 10808,
      "Nel": 10809,
      "tale": 10810,
      "North": 10811,
      "when": 10812,
      "Rou": 10813,
      "Cor": 10814,
      "Tit": 10815,
      "take": 10816,
      "ota": 10817,
[...]
